#version: 0.2
t h
i n
e r
a n
o n
th e
o r
a t
e n
e d
e s
a r
a l
i s
o f
a s
an d
' '
i t
i c
r e
in g
t o
i on
o u
l e
= =
r o
s t
h e
en t
i l
c h
a m
o l
e l
o m
a d
a c
f or
u r
1 9
s e
t er
at e
i v
at ion
i g
T he
i r
i d
w as
l y
u n
i m
b e
2 0
er s
c t
e m
a g
or y
o w
u s
a y
i th
t r
w h
c e
o t
b y
c on
u l
o p
d e
w ith
a p
ate g
e t
ateg ory
C ategory
v er
is t
es t
u m
a b
I n
u t
ou n
ro m
c om
er e
p l
al l
a in
r es
a v
f rom
o c
i an
i es
th at
p ro
p e
ar t
it y
o s
ar e
'' '
e x
is h
s u
h is
o d
== =
c l
n e
ig h
i f
b er
il l
th er
s h
t e
i a
ar d
ic h
i p
a k
t s
al s
g r
q u
es s
20 0
m an
m ent
C h
at ed
u d
e ar
S t
i al
1 8
p er
ar y
g e
m er
iv e
i e
ou r
p r
o v
l d
en d
w ere
p or
am e
on g
in e
an t
ag e
R e
g h
el l
o ver
ic al
as s
d er
on e
d u
st r
) ,
wh ich
a f
ac t
as t
b l
ac k
U n
o st
s p
t w
ig n
oun d
f er
i b
ct ion
it s
ou t
w or
als o
l and
r it
19 9
r an
o g
i z
ow n
20 1
c or
com p
a u
igh t
e w
0 0
n ot
a w
s er
h ad
a ch
p art
k s
ou s
u re
ou gh
u p
c ent
ter n
ic an
c es
it ion
H e
| |
i re
b o
t y
av e
p h
f ir
k e
S e
id e
d is
A n
A l
A r
c r
T h
for m
por t
or e
ic e
en s
en ce
ation s
p res
om e
f e
h as
at er
A mer
b r
an g
u e
at es
an s
'' ,
o ther
fir st
pl ay
p t
ol d
i le
d r
wh o
b ut
em ber
ar r
im e
I t
i ed
it e
19 8
it ed
re e
ation al
in t
y ear
m e
) .
ic t
the ir
ac e
o k
a th
D e
ul t
at t
a il
h er
c re
con t
Amer ican
al ly
c o
M ar
i o
c ol
in cl
ou ld
u st
o b
E n
u bl
l in
h ave
N ew
am p
l ow
com m
ent s
ch o
19 7
f r
ab le
in d
e v
C om
a ir
d es
ion s
ur ing
e le
of f
p o
p os
an n
or s
th is
c ed
ad e
w e
ser v
tw o
ar k
il m
s y
el y
l i
L e
l ish
* *
cor d
A u
c an
be en
o od
as ed
an y
iv ers
s on
J o
b or
m in
p re
af ter
t on
19 6
ur y
cho ol
A s
l es
ic s
us ed
as e
p ol
p ubl
1 7
w ay
v e
f l
re g
wor k
op le
is s
en ces
r a
ne w
g en
s pe
ic k
c ess
incl ud
ing s
c oun
C on
v el
t ime
as h
an ce
in to
l oc
f in
F or
ct ed
o y
ur n
E x
sh ip
Un ited
c k
w n
1 0
v is
S h
m on
un der
s c
ex t
e ver
be c
b u
m ost
P r
ou th
g an
k n
m ore
O n
the y
ter s
f ilm
ak e
t en
en g
N or
u se
u b
m ain
pro du
B r
m ed
En g
re l
1 6
in ter
al e
p ar
a h
ou se
C oun
W h
19 4
1 5
i x
con d
C ol
t ain
i ous
op ul
su b
19 5
n b
ol og
m a
w ard
'' .
on ly
e en
nb sp
it ies
es e
h y
il d
fer ences
20 2
in ce
t ed
b all
at ive
am es
r ed
w ould
G r
ou p
over n
cent ury
c er
year s
id ent
i el
th r
ist s
ar g
T r
h im
W or
d ay
c ur
wh en
con s
T his
in n
ivers ity
gr ap
su ch
pe ople
pro v
or t
se t
l ed
iv er
p opul
s ome
on d
C l
er al
n o
f f
1 2
e p
as on
in s
il y
Jo h
St ates
j e
u ary
re t
if e
w rit
d uring
at ing
if ic
wh ere
Re ferences
man y
m ov
be tw
betw een
the m
a z
ol low
for e
kn own
c y
h igh
re at
u al
th ere
s ing
" .
s o
S c
R o
tr y
th an
d o
the n
op er
i et
pres ent
n um
I s
s he
f am
c ial
Joh n
m y
P ro
i er
thr ough
I I
F r
is m
tr ans
19 3
us ic
to wn
n ame
c all
ag ain
l ater
c ap
B rit
st em
W ar
le y
B e
1 4
" ,
f ul
l o
P e
r y
C an
Un iversity
em ent
w ell
i k
st ud
b ack
o ot
G er
0 s
str u
res s
F ran
1 3
v ol
ab lish
bor n
ab out
ist ory
m ade
tern al
un t
ro w
ro s
m od
re le
O r
est ablish
u c
th ree
ers on
f ound
su p
ad d
f ollow
* ''
includ ing
| -
g u
b um
ion al
le ad
n or
le t
l ine
o se
iel d
== ==
ur es
ig in
em b
le g
en n
C ar
In d
vel op
S p
ch ar
ro ad
n am
Wor ld
bec ame
v en
is e
iv ed
ment s
s ur
B l
ar s
ur ch
g overn
th ough
st ate
m ay
ie w
G e
v ers
on s
publ ic
lin ks
ish ed
ct or
be ing
ap pe
. "
c ity
gr oup
ic a
je ct
P l
pol it
d ire
or k
re cord
P h
are a
A t
ut ion
ser ies
S chool
iv ing
te am
in a
se cond
Ex ternal
B o
ul ar
us s
2 5
wh ile
he l
ro l
s oc
st it
al bum
M ay
v ar
s chool
un e
N ational
s ign
Brit ish
sy stem
v iew
A d
r ight
Y ork
Au str
Coun ty
g o
y s
00 0
ow ever
A c
or d
i ent
h ouse
A f
or igin
f our
se ason
J an
u ro
ow er
a x
de velop
1 1
el s
f t
call ed
ur al
iz ed
b and
P ar
bo th
er n
Eng lish
oc k
Ch r
ian s
al ign
iv es
on t
n ow
n d
i or
a id
m at
Can ad
v ent
off ic
i um
de p
num ber
d if
gr am
sh ow
S outh
M an
j or
com e
el f
C o
e f
is tr
fe at
for mer
des ign
P ol
s m
ar ch
pl ac
Com m
N ov
u g
K ing
re ad
ag es
im es
unt il
be fore
m s
m usic
u ally
vis ion
un d
J u
se ver
ce pt
again st
i am
C ent
s k
= "
ag ue
he ad
is ter
Nor th
op en
to p
au se
b el
2 4
s ong
or gan
E uro
l ong
m en
al es
cont in
Af ter
b ased
a i
w ar
popul ation
2 1
d om
ear ly
st y
U S
ist or
3 0
c over
an k
il ity
re qu
emb ers
er ed
ib le
olog y
le ft
a ther
en ch
end ed
tern ational
l a
W ill
su c
cl ass
O c
p ed
po int
iz e
h old
S he
is ion
Au g
u ch
r un
ir d
m ark
f ield
v al
l ife
ther n
u de
F e
it al
per i
E d
de ath
De c
f oot
ical ly
ros s
Austr al
A ir
tr ib
C ity
Se pt
S er
appe ar
Al l
t it
st e
Aug ust
v ed
the se
st and
t ing
fe ct
at or
m p
G u
s im
Sept ember
s ame
ber t
ang u
bu ild
govern ment
iss ion
Mar ch
sever al
comm un
Euro pe
ction s
ne ar
to ber
C al
char ac
Oc tober
l ing
ic es
ut e
Th ere
il it
spe c
Se e
p le
p ass
th s
p erson
J une
ap an
ak ing
rele ased
n er
W est
fam ily
g ame
G en
H is
Jan uary
om an
ir ed
establish ed
t le
Ger man
de c
l aw
i ation
s ince
E l
c our
J apan
h am
A pr
Ju ly
b ur
et s
gr ound
c ar
sty le
pl ace
as k
w ill
b us
om en
M e
Apr il
pro gram
Fr ench
f act
pres s
por ts
il t
ie f
ic ip
d iv
ma jor
2 3
ch an
C or
re ce
Dec ember
Nov ember
th or
grap hy
ent ly
j o
st art
N e
re main
r on
19 0
te le
nam ed
b le
af f
r ic
al ong
Ge or
le ge
2 2
ch n
H igh
Ch ar
id ed
ch es
for d
li ke
a im
F l
. .
S te
c a
e ach
l ess
W e
s ite
on y
Chr ist
200 0
c are
d own
S y
suc cess
wor ld
ret urn
B ar
m embers
c he
m ill
2 6
5 0
S oc
sup port
comp le
A m
o th
l ar
follow ing
c ut
B C
sm all
s ide
The y
ov e
Will iam
H istory
c as
2 8
ur ed
at ure
l angu
play ed
in es
r est
grap h
form ed
P art
pr of
2 7
201 0
pos ition
an ts
p ower
igh ts
m et
c le
L ond
be gan
18 9
Lond on
st ation
iv al
dif fer
g l
H er
d id
200 5
al ity
l arg
p at
t al
en e
qu e
M c
contin u
b re
in c
E ar
w ater
all ow
h ome
H owever
c ould
200 6
M in
c ast
dep end
e k
af t
b ir
b ro
p rom
or der
ke y
r al
id ge
bu ilt
A fr
tr ad
f ac
is on
le ct
res p
2 9
g er
is ed
c il
D r
l er
v an
ard s
g y
l ist
n ing
play ers
M a
cord ing
ar ound
Fe br
Febr uary
St ate
S w
r ad
ot t
M ed
iet y
loc ated
t ext
am ent
P ark
e qu
s ol
w on
at ic
an e
R iver
N ot
us ing
ilit ary
il dr
av ing
200 7
200 4
il le
of ten
loc al
ne y
l it
n on
R uss
( ''
f un
A ward
du e
ildr en
cons id
gen er
p ut
cur r
in v
ver y
comp any
l im
re fer
if ied
in ed
ar m
200 8
D av
a ul
k ing
18 8
m arr
S u
Ph il
os s
re f
m ar
is su
at s
in ess
foot ball
au gh
d ied
s l
amp ion
P res
T e
c amp
des cr
tr a
d em
r ac
l ast
id es
m ember
publ ished
at a
ur ther
col or
nd ash
bo ok
att le
Re g
es tern
Le ague
lar ge
serv ed
incl ude
N o
tele vision
S an
tr ain
ing ton
in du
w est
It al
at ely
con om
un g
he ld
B ro
d en
iz ation
a ver
l ab
am a
j p
An d
M on
th ose
with in
land s
g ames
bec ause
fl u
200 9
h istory
a e
iv ely
er y
T V
F ile
Com p
g re
in cre
tr act
jp g
B y
iv en
C r
h and
res ult
as ter
P er
to ok
1 00
h um
on es
ro p
j ust
ial ly
n ational
se qu
Eng land
al th
c ult
201 1
le vel
nor th
y n
i ence
H ar
t est
4 0
au thor
n et
an c
r i
peri od
re et
cont rol
man ag
charac ter
b an
200 3
differ ent
D uring
ad em
H ouse
b ar
v ill
L a
d i
18 6
ch ed
ak es
n ov
200 1
sing le
18 7
n ia
h ip
h istor
play er
f em
s elf
R es
Col lege
pos s
vers ion
ch ildren
ear ch
p ost
film s
mill ion
G re
am b
w ood
includ ed
s outh
M o
con stru
c rit
cent er
cl aim
pe ct
D em
m ake
ens us
s ix
origin al
t em
m ag
ex p
O ne
f ive
R oy
ev ent
ap pro
cl ub
us h
d ist
o x
B er
In ternational
h al
re present
Ch urch
200 2
form ation
m b
s aid
201 2
serv ice
u es
m id
L i
um ent
od y
tr ack
L ist
R oman
ay s
ition s
mov ed
ap p
ition al
cl os
ro du
st ill
ele ct
care er
g g
ed uc
r ound
langu age
de f
l ate
ev en
ough t
ch ang
s it
M ich
Canad a
ever y
E ast
av y
B u
n ess
o to
ter m
ann oun
sh ort
20 th
wh at
An g
wor d
il ar
t ion
H ol
S ch
inn ing
A b
dis tr
'' '''
o de
Q u
20 20
G l
199 9
ef fect
iv il
popul ar
d el
M or
i us
gen eral
re c
v es
coun try
ide o
o ks
Pe ople
te chn
rece ived
en cy
amp le
i for
ro le
J ames
ex pl
201 3
v ot
Geor ge
k m
D es
th ird
am ong
use um
Ind ian
p s
be g
pro cess
w in
Cal ifor
Ar t
plac ed
ail way
v ious
Part y
tit le
an other
F ilm
w omen
A ct
k ill
ty pe
se e
al t
fin al
Califor nia
int rodu
op e
c ell
s old
Wh en
v ir
or ies
E m
comp os
polit ical
201 4
S m
f ather
att ack
im port
g et
cont ain
prof ess
en se
s um
ct ure
Gen eral
eng ine
'' )
m it
m uch
pos ed
h ost
ampion ship
re port
wor ks
in o
D istr
trib ut
v ille
gr ad
act iv
comp et
cr aft
ro y
ul l
n a
T ran
g ed
ain t
v o
ag o
ot s
re al
u k
Fran ce
. ,
R ich
build ing
l iving
c arr
Th ese
i end
descr ib
201 5
om in
an a
C ap
ict ion
part ic
pl oy
produ ced
Canad ian
199 8
in it
house hold
O ff
us es
V al
oun g
um n
l ight
p ur
t urn
m ilitary
re ach
Th om
T o
and er
Bl ack
produ ction
Europe an
m ale
chan ge
to tal
Ar my
v oc
201 6
h ol
un icip
ar ed
m ot
v i
ib r
ele ction
bo ard
g iven
P al
t a
b as
th od
s ent
G overn
Austral ia
L ou
ep is
a ud
s cor
z e
T own
ree k
Dav id
bus iness
W ith
ab ility
iv id
st er
in vol
le x
P aul
in k
act ion
u el
cre ated
199 7
Q ue
aver age
St reet
pr im
6 5
as tern
var ious
I m
e conom
w ent
S tr
ex ample
B el
dire ct
ty p
pre vious
Roy al
n al
sim ilar
O ther
r en
g reat
pres ident
g es
i als
199 6
P o
be come
announ ced
in flu
h ar
g ar
er ing
um b
D on
4 5
mod ern
com b
for man
writ ten
L u
Amer ica
P ort
201 7
ac y
Ac cording
ro te
b est
J ew
v ice
it ar
develop ment
P ubl
3 1
cr ip
ou thern
pl ic
al d
c ame
" |
con ne
H en
ag ed
oun tain
Distr ict
to m
m ult
part y
Japan ese
le ction
ic o
M id
st at
pro ject
20 18
Un ion
F ir
H all
c al
R ed
a el
ge ther
M usic
Is land
spe cial
est ed
20 19
an ish
pro te
s ize
f ew
6 0
pl es
''' ,
comm on
ass oc
18 5
Re cord
bir ths
w rote
way s
with out
m ing
continu ed
consid ered
b i
C our
3 5
C up
King dom
J e
ward s
open ed
we b
t imes
om b
U K
s w
I r
reg ion
199 5
marr ied
b road
re m
t ake
Austral ian
i ated
ro ck
ip p
M y
J er
Pres ident
comp an
Coun cil
sh ire
h or
it ch
d le
h aving
G reat
le ar
indu str
vill age
Wh ite
at ors
Ro bert
S ome
ch urch
Ro ad
M ac
x im
pe cial
ind ivid
og n
f ace
il es
L at
M al
re w
Char les
min istr
writ er
st ory
199 4
h on
group s
pr act
part ment
P at
p en
D is
day s
hal f
cre t
Ger many
o le
qu ar
A p
ap er
Afr ican
i ers
F rom
partic ular
commun ity
ak en
end ing
ct s
er a
ne ed
c ase
att em
B ur
c ir
ap point
fam il
is ing
Christ ian
Ar ch
bo x
olog ical
op s
an im
h ous
V ir
As soc
Ind ia
T er
li ament
y ing
are as
fr iend
develop ed
C ath
ex ist
Fir st
h owever
M ag
form s
to gether
soc ial
n ext
A R
l s
199 2
H ill
oc r
m iss
ol ic
T w
ste ad
v ideo
im ent
202 1
D iv
it or
b ody
199 0
nov el
M er
199 3
ac qu
pro per
an ces
distr ict
ac c
u ck
St ud
re am
e ast
appear ed
u le
ter min
f ed
F in
our ces
ran ge
os p
ic le
id ing
M art
al k
in ternational
b ase
in st
8 0
f all
ar a
W ash
to ur
Ac adem
ic ian
ith er
d est
r ul
J ack
v ict
per forman
our nal
ab ly
our s
ful l
hum an
dis c
in depend
M ary
in ation
Comm un
ph ys
bur g
con cer
g in
4 4
C am
spec ies
al though
in ts
s ch
ou te
br idge
Sc ott
offic ial
c ensus
av ail
ific ation
de cl
S un
m aking
Gr and
n at
import ant
r ace
stit ut
pr iv
S im
c is
L aw
at ter
a ut
res earch
est s
R ad
stud ents
found ed
w id
str ong
Ch in
aw ard
199 1
ens ive
se x
O ly
c ul
M et
f ire
cor por
i ate
P ress
202 2
c op
Thom as
y l
Wash ington
3 7
Oly mp
em ploy
id ence
of fer
s en
ele cted
p ain
larg est
N A
H am
oun t
a ign
describ ed
f urther
fr ont
mark et
S am
tr av
ou ts
th ing
or ed
m ater
at ch
Lou is
ship s
success ful
In ter
be h
G old
i ke
W estern
coun t
io graphy
de fin
Russ ian
ag re
f ail
B ay
us ually
M useum
return ed
oth ers
l ost
n ight
se par
im age
famil ies
tr ies
en a
f ree
la un
B est
be t
cover ed
sp ace
ell ow
T ur
ip le
te e
n ed
K e
Ch ina
dr aw
en c
3 3
rel ig
se y
m us
co ach
H istor
for t
sh ould
r ap
d am
S ing
M us
ific ant
V ol
id ents
Y ear
su per
r ain
Ital ian
op h
stit ute
serv ices
Gre en
com ing
record ed
D o
h a
Pe ter
u ation
c up
div ision
e cut
Comp any
it ive
S al
ist ic
S en
202 3
l og
g ood
Ch ampionship
g row
Z e
f ig
9 0
V ict
lin es
ers hip
T or
p an
W il
198 9
avail able
bel ie
202 4
ar ies
air craft
ad es
Ang el
im ate
Fl or
Le g
w ide
3 6
Cent ral
Wh ile
Record s
A lex
D u
rad io
m al
w ife
l ive
start ed
M ex
C A
Mich ael
Su per
ain ed
an al
Chin ese
le cted
i que
Assoc iation
Cent er
pl an
lead er
sign ificant
off ice
mod el
bl ack
ne ver
Hen ry
st ates
do es
school s
L it
M iss
c us
Tran s
Fran k
n el
prom ot
it z
S k
3 8
introdu ced
ber g
add ition
constru ction
m ission
Rich ard
I l
C D
om et
Cour t
h ib
B en
him self
Sp anish
p ite
ac ross
death s
D an
eng th
ish ing
t ar
st on
ul a
rec ogn
c ost
od es
198 8
E r
um e
L ake
d augh
h ard
Mar k
d oc
em or
gu itar
inv est
rele ase
av es
C ong
cr ed
ak er
b g
a j
se ven
wh ite
ro om
ed s
s qu
Cath olic
T ex
D el
f ar
B or
w he
g a
i j
ent ial
h ow
we ek
bg color
S l
lit er
Ear ly
S ov
T ele
7 0
it ing
Soc iety
r is
dire ctor
du c
G od
id a
G o
m unicip
3 4
ant ed
is l
Dem ocr
ibr ary
ev ents
one y
ran ch
in come
m ust
jo ined
Sov iet
tr ess
u ter
me an
se en
back ground
6 4
ac cess
D ay
g ress
f ind
Vir gin
educ ation
.. .
198 7
ant i
f und
for ces
t aken
for ce
Jo se
B ill
av al
ed y
m ap
m ath
M ad
ap e
er gy
m other
curr ent
II I
writ ers
m or
as es
o graph
T om
v ia
en ced
aw ay
coun ty
con du
il ities
act or
U p
c ivil
3 2
camp aign
h ab
household s
18 4
ol der
i en
Gr oup
un its
p ot
me et
cour t
Fran cis
low er
vol ution
at ives
em ents
attem pt
rel ated
st ations
R ock
ear li
end s
3 9
M ont
Publ ic
work ing
g un
N E
19 th
St ar
b our
198 6
id s
c u
s ound
vir on
Re public
p ly
E mp
compan ies
Y ou
s aw
red u
origin ally
s to
Div ision
in formation
s ports
y oung
fun ction
su gg
Al though
O ld
d on
epis ode
B ra
r ights
report ed
fem ale
F oot
E le
po ints
sp an
e ither
pro ble
b ound
play ing
work ed
H arr
( "
b it
ass ist
198 0
fer ence
mat ch
M ill
d ata
part s
oc cur
system s
C ast
H u
I re
poss ible
S A
on ce
Sm ith
S aint
song s
Vict or
t re
Academ y
ot a
L ab
follow ed
profess ional
hel p
cons ist
ic les
K ar
Ire land
our ce
includ es
198 4
te ach
ic y
rel ation
appoint ed
lead ing
at ory
ro wn
web site
omet imes
E duc
ver t
y r
t ail
198 5
im in
act ive
M od
o graphy
ur r
i os
az ine
te en
end er
u fact
part icip
Par is
design ed
st or
Pl ay
umn i
Cl ub
ad ministr
Sw ed
st ant
it tee
ann el
t ro
f requ
m i
ph oto
f oc
re placed
d ate
h ood
reg ular
comple ted
k ed
ex peri
c ause
mon ths
Tex as
t ic
w estern
me thod
* '''
ens ity
B attle
com mer
if f
read ing
se ction
Car ol
= #
o is
and s
Min ister
V er
F urther
sp ir
Afr ica
et t
Ir ish
on to
Emp ire
prov ed
bo oks
P enn
F ed
feat ures
m ass
198 3
cer tain
trans l
Ch ic
establish ments
th us
cent ral
. ''
as ing
c ross
remain ed
ent ire
P ac
) :
ch ild
M ass
est ival
ne g
H or
L os
vi ol
tain ed
s el
b ill
ol k
cult ure
re view
R ailway
r or
ul ts
lab or
S um
ab ove
C he
coun tries
sing er
is to
sy l
performan ce
B i
t or
Cl ass
through out
al and
me as
de but
air s
h an
198 2
daugh ter
plac es
st age
ce ed
C amp
ut ch
At l
own ed
G reek
ag on
7 5
tr u
arch ite
charac ters
per formed
N avy
up on
t reat
Se cond
com es
cap t
Sc ot
M el
h it
m ix
at re
Or der
1 st
ell ing
S ince
if t
P an
cre en
med ian
ph il
viron ment
f an
ra ther
E 9
197 9
stand ard
Chic ago
ol f
ar ily
crit ic
art s
stud y
er ous
O t
De partment
p ay
d ou
t ax
L ord
m is
F A
S up
pr ed
y a
198 1
ap t
L ife
Par liament
M ost
qu est
ven ue
a ur
s ometimes
and ed
event ually
Jew ish
polit ician
s ay
u als
oc cup
h om
ex ecut
pr ison
197 0
sub sequ
ain s
pr ing
f av
In stitute
show s
in stead
y ou
um p
kill ed
m ic
album s
ou l
res pect
g ave
le ague
Not es
e ight
le ast
cap ital
ra el
priv ate
bir th
leg al
W al
nat ural
S ir
in j
s at
feat ured
p ark
197 4
Tw o
resp ons
un k
su re
prov ided
re cent
er o
sign ed
For ce
stit ution
v ing
h i
B ut
L and
kn ow
clos ed
ex press
con tract
ter rit
cl ose
bre ak
" )
M P
pr int
ar i
it a
202 5
de fe
ut ure
, "
5 5
is land
f low
who se
dire cted
m as
d a
p ie
reg ard
ind ic
s top
sub ject
man ufact
Is rael
T y
g ian
T our
b on
I f
197 2
18 0
med ia
em s
j ud
sur v
Ze aland
ac tress
ens ion
Pr ince
K ore
197 6
im m
er ation
ud d
li k
e y
197 5
S ur
w all
B A
n y
pecial ly
ob ject
bro ther
mov ement
197 8
art ists
R A
es pecially
set t
add ed
stand ing
M il
d ensity
r iver
ac ts
R ob
Off ic
b ank
Li ber
197 7
s il
Virgin ia
9 9
5 00
ant a
chang ed
the ory
P re
issu e
Cong ress
f re
resp ond
gener ally
ic ult
sc ience
ant ic
ac cept
C O
he alth
am ed
f ight
J ust
ent er
197 3
Govern ment
M at
pr inc
w ind
S pe
Nor thern
196 8
Pol it
net work
osp ital
trad itional
inter est
c and
r up
F er
dest roy
Educ ation
k a
set tle
F re
4 8
ist an
ac es
o on
Award s
Ital y
M en
team s
Jose ph
inn er
) ;
n s
Rad io
ic ts
d ig
mov e
ad o
im p
t i
commer cial
claim ed
c it
ach ie
ip s
197 1
L iving
196 9
in te
read y
ig r
v in
ve h
cept ion
l oss
bel ow
st one
its elf
W ood
21 st
um ents
{ \
r ailway
e th
g old
ish op
re ason
writ ing
Pac ific
ap s
S qu
O per
at al
M any
n ames
w a
b ell
loc ation
build ings
Foot ball
appro xim
O ver
t ies
H ow
st ated
n omin
grad u
l am
H on
dif f
sy n
ex per
Un der
lo ok
Mart in
se a
in corpor
V ill
val ue
l ived
ne igh
p ast
r d
i ents
on a
E v
M ic
S ub
S ong
Angel es
prov ide
outs ide
comple x
ad op
al most
cur ity
b ot
} }
publ ican
A g
b en
col on
Ar ab
train ing
al umni
r ail
stru ct
ign ed
j ournal
I S
invol ved
L o
d ed
196 7
4 7
ig an
F L
l or
trans fer
g as
ask et
co ast
c ing
allow ed
194 5
l ay
ar my
Bro wn
doc ument
vent ion
por ary
high er
ment ary
B a
D ou
z a
gr and
independ ent
st ar
b attle
wor th
B us
D en
ad a
L in
nor thern
An n
van ia
C a
pl ant
un it
l ie
H aw
S il
pl at
f ood
r ich
ur b
4 9
oper ations
Val ley
ter ms
I ts
the s
sch ol
pl ann
reach ed
list ed
O ut
se at
stru cture
ff ic
s outhern
on om
me ans
sc ient
m ach
S to
w inning
ly ing
C ivil
ch ief
O h
qu al
K r
s of
r ate
m ir
trans port
A C
F red
S ol
l ic
an cial
ar ian
i age
er t
syl vania
p urch
in i
op p
ad y
econom ic
br ought
ct ive
se mb
b ers
con tribut
Ma jor
h us
th ers
r ing
mus ical
semb ly
h u
co de
m ur
ce le
em er
previous ly
industr y
ac cording
c el
f o
comm ission
to o
am s
H y
F ollow
Brit ain
f fer
ad ium
v on
sy ch
appro ach
g ing
aw a
min or
requ ired
D i
{ {
de al
broad cast
h o
Comm ission
ph en
prim ary
196 0
lim ited
assoc iated
art ist
H um
st aff
tr ade
cle ar
chang es
B oy
R el
fr ac
s creen
d y
ov ers
Ser ies
196 4
not es
Pr of
rac es
min ister
D utch
high est
Com mon
l ength
it es
. )
ib ility
crip t
per form
Ed ward
Ar ts
cand id
ow s
L ine
For t
b ury
Scott ish
pl ied
us ion
ent ion
Ser vice
G all
ed ition
Film s
F C
beg inning
Flor ida
L oc
2 nd
c ities
in et
S ports
Te chn
oper ated
196 5
comm and
L ong
196 6
ick et
Democr atic
9 5
coun ter
the ast
dr um
mon th
relig ious
person al
J im
O x
re v
M ountain
S outhern
r ough
Bra z
N et
Mex ico
f le
refer red
d 6
cour se
M r
pol ice
au to
Lat in
Re publican
ord in
Sc ience
st arr
Follow ing
s us
M ain
Mid dle
Sy stem
ke ep
issu es
cy cl
C ross
Air port
particular ly
Bo ok
award ed
in str
Se cret
G ar
Penn sylvania
tem per
oc key
fem ales
4 6
major ity
L ibrary
m es
r id
l l
for ced
L ove
po se
ap plic
per or
al tern
M os
ol a
Que en
St ation
P ost
word s
cas es
D ire
f uture
Soc ial
col lege
M u
B ig
spe ed
cent re
trav el
mater ial
** *
az z
mon d
Tele vision
H el
o o
mean ing
produ cer
t aking
phil os
oper ation
un iversity
198 0s
b urn
19 20
pro b
earli er
incre ased
p ers
R os
C E
s ource
laun ched
g ent
b ass
run s
de g
asket ball
ol l
ex am
stud io
W ales
ur a
h ot
Col umb
mag azine
bor der
lit tle
o il
B BC
comple te
dec ided
F am
ist ics
ve y
individ uals
Braz il
B road
e ter
Scot land
col lection
fin ished
cele br
in ent
Geor g
wh om
cr u
fed eral
B as
A re
E s
Th at
l os
we ight
a be
s af
J ul
so on
commun ic
sum mer
b ed
Ear th
E astern
as y
8 5
New s
t im
B S
voc als
Sp ain
organ ization
fam ous
B ob
add itional
four th
spec ific
ar ing
d rop
b a
sur round
fe fe
equ ip
ch air
ay ed
new sp
ca used
beh ind
Russ ia
l ack
en ergy
ian ce
re ve
r oute
st ream
199 0s
al one
if y
S at
an o
'' ),
A v
ian o
Carol ina
B et
sh ot
appe ars
p et
is es
J ud
al ed
L ater
comp let
f if
though t
hus band
Jer sey
h un
. &
R u
w ing
sy mb
9 7
196 3
trib ution
Pol ish
ur ban
om a
W ind
pass ed
w oman
F ound
act ors
U r
res ults
T im
be y
f iction
H ung
p ts
to wards
ad v
K en
8 8
O l
B ul
E gy
coun cil
new s
ol s
tw are
iz ing
L I
Bl ue
deg ree
T ime
Le e
langu ages
O S
6 6
act ions
M A
at tract
f ish
196 2
h ere
Se a
pr ior
on se
run ning
r at
en ed
M ilitary
As ian
b al
defe ated
p p
individ ual
influ ence
manag er
b ig
approxim ately
jo in
en vironment
B ase
sk i
iz ations
o or
u str
T imes
H ot
De ath
mult iple
k in
197 0s
C y
id er
G al
larg er
C ult
res idents
ir l
histor ical
M S
play s
curr ently
re me
stat us
d ro
P erson
em p
Trans port
Comm ittee
leg isl
long er
W omen
f a
9 8
ac adem
m ountain
B ost
G ames
pract ice
remain s
cre w
inter view
an i
c ard
ev idence
u z
Columb ia
k i
open ing
Egy pt
st ep
P or
m em
pe cted
ro t
w er
con tr
dist in
B ow
support ed
Met ro
F our
s al
f el
trad ition
ple ment
con f
inte gr
194 4
; –
fore ign
i ences
0 1
ul ation
s or
o id
p air
196 1
ut es
E p
ches ter
ans as
Pro v
n ation
Bost on
appear ance
194 0
contain s
feat ure
7 7
ch arg
de b
it ors
al ready
I V
n ic
ys is
Ch ief
B re
4 2
Lit tle
ian a
est im
Je an
b omb
most ly
St an
we alth
m oney
num erous
at o
num bers
b att
pol icy
vot e
go al
lab el
init ially
program s
pro posed
belie ved
Is lam
r ule
195 0
invest ig
R ail
Con t
to day
E C
w an
ann ual
anc ient
im med
me chan
fl ag
se cret
ic ians
M ah
comp uter
t ell
par ish
F ar
ard en
ur ies
k y
p il
av en
per cent
I D
oc cas
fin ancial
n es
v ation
su ffer
9 6
j un
p ath
Con serv
J ones
hab it
op hy
W ater
Oh io
Pro du
P opul
sur face
F estival
proper ty
is ters
y er
C are
; "|
b ird
hous ing
In c
cre ate
se ts
195 9
oun der
m aster
Ox ford
f il
at ively
lik ely
su it
bet ter
ob al
Res earch
pro p
cre ation
O s
De f
ell a
E9 E9
M embers
typ es
er ve
typ ically
On tar
u an
ic ated
S S
As ia
separ ate
195 8
emor ial
f ill
R h
_ name
H a
An other
L y
K ent
man n
lo ad
Ontar io
k en
in al
ion ed
manag ement
M ot
u x
f arm
William s
be coming
led ge
requ ire
ch annel
not ed
m outh
tain ment
dec ision
195 6
stud ent
P G
D ie
D un
i qu
N ative
B ank
cl ud
B ir
e astern
J un
part ies
per ial
G ame
elect ric
J es
O f
ne cess
gen cy
se c
sel ves
194 8
m ight
194 2
E lect
194 1
M ax
Y oung
ful ly
7 6
E conom
Al bert
bur gh
196 0s
Des pite
T op
ad or
G ood
go ing
inn ers
is ation
ad el
ing u
193 9
serv ing
ele ments
C reek
e c
let ter
he avy
ex hib
an ge
W all
ar ran
tro ops
** **
incre asing
resp onse
them selves
th reat
bl ock
serv e
techn ology
hous es
v ices
incre ase
En ter
195 7
ex cept
l atter
4 1
T em
M ur
4 3
i be
issu ed
B ern
Re volution
we e
de tail
Alex ander
po et
former ly
arr y
ste in
B al
f olk
amb ig
relation ship
P A
Olymp ic
pre vent
Phil ipp
H al
sk y
stud ies
g ive
John son
g ot
in stitut
Th ree
S T
pass eng
Sum mer
A sh
con cept
ce an
R am
h ours
Br idge
al ways
8 6
de termin
C ensus
offic er
O b
qu ick
Bo ard
use t
Cent re
194 6
B udd
ak a
195 5
com edy
prov ince
R oute
Co ast
S and
u gu
C ro
O pen
Il lin
ab les
var iety
settle ment
inst all
m useum
direct ly
at ers
is ions
att ended
represent ed
''' :
ur t
comm only
e ch
194 7
Cor por
Govern or
H o
incorpor ated
H ome
it t
v a
ous ly
Mich igan
The atre
U l
p age
met al
ir es
mur der
Victor ia
augh t
dom in
Sh ow
cor e
Francis co
R og
ach uset
activ ities
cult ural
Du ke
ag ing
U k
design ated
mit ted
R ay
un ion
Prof ess
ict ed
sh own
n uc
Mass achuset
consid er
ele ctions
Illin ois
acqu ired
I A
Jack son
As sembly
y an
i as
loc k
ap ers
p al
Massachuset ts
V an
vict ory
l if
offer ed
mid dle
et y
cond itions
194 3
on ic
5 6
s pl
th ur
t arg
D or
og y
record ing
p aper
del iver
ó n
W ay
fail ed
con fl
The ir
- -
bor ough
o ke
b ad
We b
K ong
5 8
ul ty
am ount
k o
dis e
and a
prim arily
div ided
t akes
ct ic
ian g
yn ast
ask ed
scor ed
al leg
m el
br ief
ed itor
quar ters
P C
con ver
it ted
n ine
ig er
7 8
m ales
ent ered
polit an
h app
sp ent
S ar
on line
enc ies
d in
quar ter
Bi bl
row span
cont em
track s
D C
po or
P en
195 4
municip ality
B ack
n ative
re y
des cent
i ro
prov ides
compet ition
n ature
M ore
p sych
El iz
cit iz
195 3
gre en
med ical
it ation
carr ied
W rit
Georg ia
produ ct
N ight
abe th
h ill
3 rd
turn ed
Is lands
ail y
P ak
m os
produ cts
offic ers
disc uss
194 9
Off ice
marr iage
ut en
pre par
i est
f ix
% )
as c
ell ed
ow ers
diff icult
produ ce
V i
D et
S pecial
H ong
Eng ine
subsequ ently
near ly
an th
K n
I ran
h all
R ome
195 2
M ount
we ap
fl ight
res tr
ian t
s ources
b ow
ron ic
s ister
Or gan
hol der
hon or
et te
present ed
ar row
c ou
And rew
ide a
Tor onto
Uk rain
de part
Bu ild
stit u
Offic ial
i ber
A D
ct ing
ch all
bo y
M ov
port ion
l ot
al ph
u ed
V e
fir m
them at
whe ther
person nel
Bo th
qu ality
soc iety
ch ampionship
dr ama
T od
municip al
R om
Ch ap
constru cted
is try
remain ing
commun ities
des pite
5 1
ar ms
br ing
ak ers
L es
Pol and
De velop
F ield
M unicip
proble ms
M inn
ill a
He ad
Ar thur
A venue
ben ef
Not able
L im
small er
at i
d ie
town s
b ul
T A
W el
art icle
offic ially
oper ating
T re
P et
z y
ict ional
int ended
Fed eral
Ot to
col l
195 1
S o
ren amed
main tain
ffic ient
ev ol
main ly
3 00
ure au
squ are
b asketball
h r
f ounder
p op
dem on
epis odes
sof tware
scor e
it age
V en
M as
a is
feat uring
O p
near by
ul f
sit es
mod els
K o
T reat
com pl
mov ie
ra ised
D ar
J r
F M
le aving
B ell
dou ble
Sen ate
c oup
W is
ch ap
Town ship
Ad d
ug by
Ge ography
He alth
ver se
char ge
Olymp ics
ou d
p ack
Med al
wee ks
grow th
m ad
J os
m akes
meet ing
effect s
5 7
om er
d one
pre c
f ast
Pr ime
vo ice
ain ing
wid ely
ro vers
defin ed
c ars
cap ac
S C
to urn
C ard
F le
Mus lim
l av
Bo oks
sc ope
r out
bl es
start ing
Un ivers
st ories
Swed ish
adop ted
V iet
record s
spe ct
ext ended
pat ri
ob ile
US A
col labor
ast ic
add ress
iz es
cont rovers
ch er
en ough
An ton
pt ion
L ew
N H
ph er
sp read
D er
k ind
pl ans
B on
e es
l ove
inter pre
M ir
mov ing
y o
5 2
* "
tit led
B ol
ed om
br and
Je ff
aff il
F all
lead ers
im plement
bl ood
larg ely
Fam ily
dis covered
Jo e
dis ambig
T enn
str ateg
i ations
je cted
bl ue
z o
vers ions
J ournal
w ear
disambig uation
sc ale
9 2
Histor ic
Cast le
sub division
un ivers
do or
level s
adel ph
for ts
6 8
F air
tr ic
reg ional
bas is
Sp ace
ac count
Cam bridge
In depend
l ers
b s
j ob
along side
m m
res ist
pres sure
territ ory
base ball
mark ed
sh are
N az
neigh bor
hel ped
po ol
L ive
he art
ig en
: '''
the or
9 3
9 4
á n
compos ed
Te am
s id
ret ired
respons ible
sold iers
19 18
and on
P ower
season s
govern or
S a
phys ical
who le
suc ceed
Or igin
Phil adelph
order ed
or ro
F ox
ot e
par ents
w ick
init ial
cor respond
ad van
Se ver
P rem
Al bum
al a
re moved
agre ement
Em peror
se curity
Gold en
P S
} {
math b
Med ia
Cor ps
il ly
as tr
experi ence
St and
Secret ary
k ins
ess ion
F ree
dire ction
L et
newsp aper
Philadelph ia
W ell
c am
pe ak
g od
pt on
t ill
18 th
liter ature
H un
D own
pre m
administr ation
iver se
in em
industr ial
beh av
ph y
de feat
J on
w anted
v ard
son s
A th
T ay
Viet nam
tern et
N at
j i
struct ures
Mod ern
Ber lin
min utes
193 8
ion e
to ld
c os
193 6
Atl antic
cred ited
dr ug
program ming
cons ists
col lect
a o
cons um
Jew s
ran k
m o
u tr
it er
Corpor ation
L ie
Commun ity
Eliz abeth
s ens
not able
19 00
Dan iel
se lected
t able
193 0
d6 d6
T est
ic ed
execut ive
I C
compos er
n ers
i ately
ct ors
R od
High way
z er
Pr ize
Sy d
de ad
t t
anal ysis
P u
ans ion
Ne ther
F ore
L A
Pak istan
o es
high ly
form at
E P
d ial
ex pected
m ut
Be ach
S anta
d ers
K ir
camp us
i y
rol l
organ izations
Minn es
of t
plann ed
B and
agre ed
l an
sc he
re ct
sing les
re pe
pro gress
I ra
Al so
amp ions
ynast y
cover y
activ ity
V ideo
Gu ard
V is
t un
Develop ment
med al
193 7
mult i
Soc orro
5 4
Minnes ota
LI NE
es cap
dist ance
L ev
fan try
por tr
vis ed
cent r
demon str
ch os
de ep
Hum an
Ear l
olog ist
L uc
pe ace
st reet
Car l
h op
am ber
A k
igh ter
own er
estim ated
tit les
equip ment
pot ential
se m
6 7
em y
st ore
C ir
Ar gent
u a
LINE AR
u ated
aff ic
b ranch
de partment
contin ue
S pring
ig ence
O k
F ame
press ion
mot or
s ched
re plac
go als
arr ived
d ut
roy al
prov in
r u
M ike
b es
8 7
act ing
music ians
m ph
sc ene
club s
r ick
fav or
se ats
rul es
fig ure
histor ic
In du
comp ared
fin ally
br a
tribut ed
prom inent
F I
Col or
P ier
pol y
Sup reme
T ok
g iving
Found ation
F ire
proble m
al le
Syd ney
on ents
L ady
archite ct
Don ald
Com ics
rac ial
S her
g am
G ree
ed ge
9 1
Tur k
ul pt
B an
organ ized
or g
Mar sh
n g
il s
sp ired
p ick
ag ric
con serv
Just ice
f ell
b ishop
Wil son
W arr
ord ers
result ing
Pro ject
''' .
agric ult
dis tribution
em eter
b in
af fe
on ent
K enn
Re present
ent al
che m
sus p
5 3
ay a
instr ument
) ''
um ber
dig ital
iv ity
H an
His pan
B ad
uten ant
193 5
form al
Coun try
Phil ip
ask a
be comes
bill ion
up per
mon t
S us
el a
Prov ince
ran e
reg ul
over all
A T
s es
pie ce
Swed en
str a
R on
j a
quick ly
r am
ches tra
decl ared
For mer
tr ue
ad ron
jo int
p ush
p ing
ded icated
En d
S P
il a
an cy
on ia
work ers
Base ball
av a
need ed
Nether lands
field s
m and
s ail
ident ified
host ed
th ous
u be
per man
M L
cr y
L ight
rel ations
academ ic
C ub
p ul
P ers
fac ilities
'' ).
vot ed
193 3
Are a
cl imate
spl it
ar es
redu ced
symb ol
B all
conne cted
ang er
Ira q
Net work
destroy ed
s pring
author ity
gre ater
Chr is
respect ively
Wor ks
capt ured
P ass
ke e
i ary
k er
co al
sc en
s cr
se arch
ib ly
o e
cer em
some one
W ild
ip al
not e
g or
cont ent
p aid
An th
l ives
19 14
: :
15 0
say ing
a ult
H ay
cer t
h ockey
ass um
treat ment
H ospital
par liament
nor mal
og ue
B ureau
w art
meas ure
R et
Pol ice
w inners
C le
h our
ish er
D V
vot es
reg ions
ag ement
ctor al
crit ical
G reg
condu cted
targ et
ch art
ill ustr
y e
d im
allow s
can not
nov els
at ures
position s
Pr im
19 10
law s
de te
ir ls
gr ade
Kore a
4 00
c ement
8 9
schol ar
crip tion
4 th
Ste ve
le ave
n ick
N ations
class ical
19 19
as ion
if ying
sto ck
M aster
am in
comb ined
c ab
''' )
exp anded
Bus iness
ic ine
pat tern
l en
cap tion
U N
il ton
Bar on
li ber
cl us
pos itive
capac ity
C rit
St at
ag er
ke pt
As s
cast le
gre w
se cut
i i
Fred er
ef forts
t ree
prob ably
fr ame
p itch
pr ime
bel ong
am m
c ow
Indu str
profess or
T ai
193 4
image _
y et
, ''
ie val
old est
beg in
polit ics
s ou
p ict
manag ed
R em
ment ioned
fif th
in vent
m ess
Pro gram
min im
Hol y
e try
pur pose
M emorial
0 7
com ment
there fore
Con ference
T ro
Ab out
B at
est ic
res ol
C re
bour ne
p in
; "
mach ine
pres ence
sen ior
Gall ery
Cap tain
d ance
C as
distr icts
T al
d ing
cir c
5 9
R ol
19 29
spir it
sh or
football er
hun dr
for ward
comp il
Ste phen
s low
B att
be at
D am
friend s
ran ts
p un
b ac
our i
Bibl iography
immed iately
_ type
r ical
f air
bl ed
195 0s
stud ied
S on
op t
ins ide
od ies
fun ctions
lead ership
R E
C ze
serv es
Tay lor
accept ed
ograph ics
follow s
g ers
may or
ly n
pl ants
ic ks
I N
es ter
al ing
Person al
veh icles
sugg ested
road s
i pe
emeter y
frequ ently
A M
19 17
i ć
M un
cond ition
exper iment
D ig
itz er
u it
r ig
C C
j oy
con stitu
cr imin
result ed
( \
f ellow
allow ing
claim s
dise ase
r ise
For d
laun ch
American s
J ac
G ro
g ained
Liber al
N ap
hy dro
ag n
confl ict
occur red
refer ence
mix ed
in f
in spired
H ard
ent ry
he ight
ran ked
econom y
candid ate
ap art
Col on
ma xim
m iles
E ach
op pos
Care er
pr a
ab andon
ad apt
^ {
19 22
ir a
surround ing
temper ature
qu ant
train s
K h
tr affic
gener ation
sim ply
plat form
know ledge
P hy
imp act
V ar
S R
I T
193 2
equ ival
au g
purch ased
Bro ok
An t
7 2
gr anted
ain ts
6 2
sex ual
foc us
cent uries
transfer red
s ales
al i
l ov
Mex ican
d ark
Mar ia
} \
contem porary
h ospital
d og
Wis cons
com ot
# "
Wiscons in
tourn ament
he av
em an
sol o
make up
Kore an
K ansas
Be fore
Lew is
s port
Port ugu
or a
town ship
g ate
U t
sk ill
W in
exist ing
ap plied
at om
g al
port un
193 1
se g
v est
Con ne
br id
St one
sequ ence
Br ig
T am
Comm and
S ab
mar ine
vol ume
reve aled
starr ing
N FL
c at
st ars
Miss ouri
col umn
Wor k
S ound
) ===
s ays
ear ned
19 28
hor se
w rest
ag an
ab ol
Polit ical
tw ent
exp ansion
reg ister
it ude
rap id
project s
dr ive
recogn ized
ap par
e as
ph one
op posed
or ation
Le ad
an ch
pres er
un known
occup ied
r um
in son
oun ger
appear ances
dam age
Be cause
enn a
fig ures
der ived
vent ure
Hol ly
K el
op position
Pl an
necess ary
B M
pro ve
stru ction
y ard
M it
Wh at
cell s
Sh ort
sc ulpt
A ge
Portugu ese
Histor ical
act ually
W alk
f uel
N ic
6 3
attack s
Hispan ic
suffer ed
é e
S av
B ang
mic ro
mer ged
R ac
mat ches
ak i
adv ant
Le on
method s
archite cture
the dr
histor ian
t el
cy cle
G i
att ention
S em
R un
Dav is
O cean
Ele mentary
assoc iation
Li ke
n i
Christ mas
ir ing
pr ise
8 2
P it
Im perial
w are
ed ia
Harr y
ob serv
For m
V o
Lin col
w ise
nuc lear
ony m
m ind
pl om
air ed
s ell
R en
Cl ar
G B
T ony
ser ious
Lincol n
iqu es
6 1
id ay
est ate
8 3
mem ory
ish es
19 21
er r
' ,
Lab our
Im age
institut ions
d ynasty
ap ore
pro pos
music ian
influ enced
rel atively
C it
second ary
Que ens
Sever al
contain ing
l ies
fl oor
19 24
Techn ology
" ),
con centr
v ement
des c
17 th
commission ed
tra it
res er
grow ing
S ix
au x
ro les
r ix
I R
int ell
Dou gl
Ad ministr
cl es
to uch
fight ing
he m
ris k
sp ons
T it
veh icle
engine ering
Po int
8 4
fle et
em ph
Sc iences
N ob
so le
H art
19 27
pl ane
C ab
engine er
att end
S E
Sing apore
Br u
H ell
Ar m
Re view
ult im
v ess
For est
tr ial
ad ap
w w
l oy
19 25
ear th
Ath let
un ique
In fo
ing er
off ers
altern ative
let ters
B iography
ach ed
6 9
et ic
ass igned
prov iding
p owers
n is
al y
un i
sup ply
bo at
P ur
ag a
Dire ctor
r ia
quest ion
air port
W at
P ict
res ident
op portun
19 23
en cour
d ated
it ness
pro to
mater ials
president ial
St adium
t end
Con fed
thes is
Dem ographics
ex change
house holder
b at
sugg est
ad vert
res h
cr ime
pro test
rup t
Nor way
19 26
mathb f
O ak
er ate
re ign
Am ong
sim ple
s ense
form ing
offic ials
en ing
ath an
gu ard
re comm
n ob
8 1
fe el
sil ver
sh oot
7 4
h ang
B alt
in king
anim als
co ordin
de x
g ives
he im
head quarters
new ly
Reg iment
con stitut
fel t
z one
et c
A ff
L or
L ind
sl ight
cont act
av el
ivers ary
independ ence
ir on
subsequ ent
se mi
DV D
B ishop
Enter tainment
se ek
A ud
Ch annel
Austr ia
T urn
dis play
" ''
int on
Th rough
journal ist
Sto ck
Color ado
el ine
cr ash
G il
coun ts
thedr al
w inter
Fore ign
effect ive
con fir
area _
19 12
recent ly
cus tom
7 9
am i
G ra
comb at
An im
Sim on
E th
ul ated
b ud
clud ed
tem porary
T en
to s
Ser b
promot ed
l ibrary
Lit er
spe ech
ap proved
pl ies
ret ire
g est
ef fort
H ou
5 th
relig ion
D P
Que bec
dr am
Loc al
In ternet
Otto man
scient ific
N aval
Br ad
im prov
Mo on
col le
un a
s an
mat ic
succeed ed
ref used
com ic
emph as
j ur
l ake
me ant
R oss
Man chester
w inner
can cer
contr ast
K al
stru gg
sh ared
Indian a
How ard
And erson
lo comot
s ides
19 16
p iano
ad voc
Dougl as
J PG
S ources
Ro se
Tenn es
ur er
chair man
n arr
vis ited
16 th
draw n
Stud ies
oc ks
complet ely
g ro
C all
s ac
rom e
vir t
s n
al ion
Hu gh
control led
trib ute
y le
L t
Gr am
ag g
whe el
Ch air
Wal ter
M ember
A z
in ary
fac ility
as pect
cou ples
ound s
st adium
is is
t il
Tennes see
ab s
prote ction
Dis ney
: #
C urr
attempt ed
| ''
sp ok
f ranch
19 15
s ort
Fr ont
Philipp ines
gl ass
Prem ier
cap tain
ig rants
Gree ce
gradu ate
con v
We ek
ov en
eth nic
Br ian
G ord
proper ties
document ary
sett led
concer t
s ed
us er
B urn
thod ox
d s
b io
aw ards
y outh
rece ive
if ically
le ts
equ al
m om
7 3
e e
fav our
fr ed
0 5
g irl
drum s
pil ot
" ).
performan ces
ann ing
ic ke
Sh ar
n ell
sh ap
T O
7 1
p son
s cript
tr ail
L ow
in cess
f ly
b arr
D om
s un
assist ant
m igr
Ad am
val ues
neg ot
P ope
ident ity
her o
con stant
arg ued
Lab or
sign al
ma themat
ã o
occas ion
h en
ref ers
Do ctor
Wh it
N ow
hel l
cu it
gl obal
my th
Tod ay
voc al
he at
aw are
av oid
wid th
Des ign
Sk y
to wer
Miss iss
in ity
show ed
Pl aces
tr ied
ific ations
Ro ber
we en
the atre
is er
R and
25 0
class es
uck y
Rail road
F F
var i
dist ingu
comm ander
col span
'' ;
saf ety
ext ensive
alph a
Mary land
B os
All en
bur ied
tw ice
L angu
D ur
cre ating
Ham ilton
Haw ai
ig a
0 6
N ick
L an
Jes us
D ark
w ave
ch ampion
Tr ack
Lat ino
chall eng
lin k
m n
Nor we
fefe fe
writ e
St ory
rop ical
K u
over ty
the me
s i
is lands
g n
s elling
ac id
power ful
oper ator
eng ines
D ue
_ 1
polit icians
Info box
C el
ict ions
Wh o
inv asion
'' :
hold s
st re
w ich
S ou
part ial
weap ons
ultim ately
os is
A A
comp ar
é r
crit ics
photo graph
u ge
D ream
19 11
ran ce
j ac
N ich
ad s
T un
oper a
r ural
continu es
successful ly
19 13
Sil ver
de cre
on ze
im s
mat ter
War s
fail ure
Reg ion
th ings
r if
C ur
sit uation
mar ks
beg ins
Au thor
f ans
y ounger
sol id
a us
set ting
Bet ween
w ild
vis it
rac ing
cl im
tr es
con ce
equival ent
public ation
Tem ple
V I
Ar k
Squ are
r ics
i at
C arr
W W
gun s
bey ond
employ ed
for est
f estival
col leg
prof it
in ternal
regard ed
d ates
b id
w alk
C ities
attem pts
applic ation
com ed
c i
anal y
G un
ik a
Re al
h at
to ms
T C
Ind ones
or ient
Jac ob
Islam ic
comm ittee
ow a
im a
administr ative
or es
ath let
igen ous
bas ic
met ro
f are
princ ipal
transl ation
ab ilities
or n
Mill er
fl ood
Norwe gian
exist ence
Cap e
se em
sol ution
E u
colon ial
Med ical
pain ter
ph ase
hold ing
bel ief
Br un
ang el
B ird
D A
ref lect
s ought
achie ved
I d
Se ven
i ar
Th ird
ex er
in habit
N Y
neighbor hood
A ust
neg ative
ipp i
drop ped
An ne
part ner
o ch
pres ents
Sun day
Holly wood
d rew
liter ary
ros sing
schol ars
Mel bourne
m ers
im ents
B ou
earli est
dec ades
fac ed
some thing
re volution
l ad
res ources
igh th
Vill age
distin ct
l as
view s
b iography
g all
Transport ation
educ ated
author ities
grap her
Leg isl
Reg ional
ped ition
Ter rit
0 3
loc ations
E st
di plom
dr iver
st ay
A BC
C op
al ty
um es
conver ted
cal cul
citiz ens
ill ery
ann a
pol ic
0 2
descr ip
Pr iv
rest aur
dem and
r ival
conne ction
d ale
im ages
it led
'' -
T ar
Al an
Pro te
B ac
introdu ction
Conserv ative
chos en
str ip
r ence
0 8
j our
Cult ure
d aily
Freder ick
M ach
L as
ed ing
teach er
starr ed
part n
band s
nomin ated
ar med
For ces
oper ate
au st
ear s
lim it
ur ation
Build ing
N ev
in fr
inc ident
ism s
D omin
great est
v ac
( '''
t ur
un te
object s
K im
W y
re ports
pur su
aud ience
Ch ildren
hand s
Sam uel
de cor
ex tra
pie ces
W inter
sh op
en joy
spe aking
Song s
com pr
R O
z en
L am
l ah
bro ke
in her
sp ot
bo ards
rul ed
dr y
F inn
a er
los ing
ro it
ol is
div isions
ar c
cover ing
0 4
in ing
p it
dom estic
s v
S ax
p overty
sy mp
S el
es h
Rel ig
p aint
iv als
He art
N BA
ens ions
sing ers
exam ples
confir med
express ed
E ven
Championship s
gu est
r ine
reg on
H and
p he
en ge
coup le
review s
us ual
190 8
pl ate
cr icke
Min istry
Y our
l on
vill ages
P op
F ac
ant asy
Cl ark
N S
ian ts
L is
passeng er
m art
cop ies
Mississ ippi
Jan e
n est
ag ent
ex clus
200 0s
Tr ust
cor rect
mon arch
ag u
H ans
perman ent
O regon
n arrow
pr on
W ol
lin s
Bul gar
us al
def ense
0 9
op in
sc ape
Mar ine
pr ice
n ie
190 5
bird s
s le
perform ing
acc ident
the w
advan ced
Be at
main tained
w al
re ar
Chr isto
cop y
ug al
pass ing
S port
sched ul
ur s
D ick
Austr ian
l at
Hill s
s we
L og
pos es
adap ted
C rown
bot tom
og en
ol as
Fin al
in ch
m ac
w ant
K at
iss ance
anim ated
jac ent
we ather
L P
M and
R C
applic ations
ash ion
ig ation
ap h
C at
I P
th ink
Se curity
fl at
w r
par alle
Wel sh
' .
maxim um
or m
Con stitution
mor ning
D anish
Cro at
en emy
A h
Pat rick
st ro
ch ain
ill er
Hung arian
determin ed
Her itage
pl ot
gen e
bro thers
Det roit
art icles
K ings
B ah
an ks
tre es
Rog er
bo ys
Har vard
g ender
Kent ucky
cast ing
Ser vices
Mus ical
s and
G ib
comm it
E9E9 E9
r end
m ole
C emetery
f ought
b ought
kill ing
charg ed
Turk ish
G arden
alleg ed
transl ated
v s
ac cur
short ly
val ley
Squ adron
mot ion
Common wealth
rout es
poss ibly
Th us
c row
or i
print ed
N on
K han
oper ates
Hou ston
pain ting
M C
por ter
ide as
heav ily
j azz
contain ed
ü r
Mar gar
stand ards
un able
arran g
ition ally
Pal ace
c ers
6 th
Ar iz
A gr
particip ated
Gord on
g ather
m oun
al o
dr aft
ain e
call s
On ly
er to
song writer
y ards
Hon or
i ors
Naz i
attack ed
u ff
resist ance
190 6
t ank
School s
Hung ary
comm od
to ward
T a
ste el
philos ophy
193 0s
ob tained
el ve
ph r
de ploy
G ard
spec ifically
Bel g
Popul ated
ot ic
I ron
con ference
L ast
ad ing
Israel i
Mos cow
Mountain s
ele ment
found ing
g ain
lear ning
H it
N BC
support ing
she l
v ast
M es
H amp
le aves
ca using
Tok yo
anim al
redu ce
B ush
d ash
z on
sh ape
produ cing
rec ip
An c
Wind ows
contribut ed
Ex press
c ks
v ary
Law rence
E very
Anth ony
world wide
tr ust
iet ies
el se
ubl in
Th ough
Ariz ona
twent y
sub stant
Bu ck
miss ing
environment al
Mal ays
sit uated
carr y
con vent
i pl
behav ior
L ar
C e
Album s
establish ment
ext rem
poss ess
D S
sy nd
Profess or
abandon ed
fun ct
ent itled
th ir
Coun t
F ellow
ar ia
190 7
Reg ister
se ctions
eral d
Re c
ok ing
t aught
Or thodox
slight ly
ant on
C BS
M E
Sw itzer
str ength
P as
7 th
ak h
i ples
Independ ent
Den mark
B arr
act ed
stra ight
foc used
R aj
ad ed
col our
Tai wan
h aps
/ /
Bill board
G ab
ven ues
med ieval
sub urb
interpre t
c ited
Metro politan
av ed
o ir
techn iques
gen us
por ters
go es
T an
Al ab
fe et
ch i
Pu erto
190 9
anc ing
Represent atives
Cze ch
Bor ough
Mc C
ag en
ins ula
room s
R ab
educ ational
Ok lah
invol ving
s am
ad vis
sub sid
de vice
R T
pre ced
t ex
Switzer land
D ave
return ing
ph ere
patri ate
Oper ation
not ably
bre w
ex act
fe e
entire ly
D ol
techn ical
fix ed
Brazil ian
st able
y ellow
reason s
t all
s q
em ic
Nor man
Oklah oma
show ing
inhabit ants
S pr
! ''
har mon
N ik
ste am
Ju an
su fficient
Engine ering
consist ed
In formation
De ad
Al i
De v
Broad way
fact ory
Se ason
et ime
C P
f it
bud get
s a
leg end
consist ing
6 00
E ric
recogn ition
offic es
190 1
regard ing
fa ith
um in
elect ronic
vol t
Die go
Nat ural
ro se
comb ination
po etry
A then
ov a
six th
Joh ann
ob served
ground s
D al
advant age
p ages
ly rics
P ear
el imin
M i
prote ct
c overs
in th
Lie utenant
d ot
fac ulty
affe cted
re form
own ers
cont est
cho ice
y our
ca uses
Au to
Fed eration
co ol
Mo ore
chem ical
act ual
in y
p a
al ter
ctic ut
Conne cticut
'' "
state ment
n aval
Pal est
C er
teach ing
c rown
ur g
Commun ist
ext ension
R a
h air
pass es
Harr is
% .
Alab ama
to w
A le
occur s
Bru ce
r ugby
ent ially
ann iversary
Tr ib
az a
Ph ill
k il
P ap
Sw iss
aw n
g ang
success or
An ti
r are
M ult
jud ge
ro b
Pl ace
look ing
ost er
F el
p ione
head ed
l aid
Fr iend
arr ested
inj ury
su st
belie ve
communic ation
190 4
unt ing
Comp an
pl us
mat rix
S i
s ale
describ es
T u
str ike
oppos ite
univers ities
stor es
s in
candid ates
Port ugal
th row
Ep is
intell igence
f ictional
m ile
it o
Tur key
aud io
fac es
he ard
K am
miss ed
rece iving
Man agement
Margar et
190 3
Louis iana
str ing
hy th
B apt
w atch
s pr
king dom
ro g
ol es
F il
L yn
t es
pre fer
Pe ace
program me
fact or
compos ition
nor m
typ ical
H ere
retire ment
Bo x
Municip al
Aff airs
f ile
S af
c ot
re jected
fin als
arch ae
c ategory
D ublin
ele vation
I owa
j u
189 0
Al fred
Gr ant
install ed
cor ner
tem ple
Ukrain e
Mar vel
min ute
F u
A P
Ar men
b ond
La ur
the less
import ance
ell ite
form ally
ist a
W olf
defin ition
C level
: *
church es
A S
brief ly
lic ens
Clevel and
O ur
r ates
F ive
dial e
K y
or al
E ag
Commun ic
cas ter
Mont real
an te
cont ext
vers us
def end
1 20
| }
be aut
re action
Phy s
re in
out put
develop ing
plann ing
c atch
clos ely
S ac
m il
W rest
viol ence
car bon
T ot
do ing
c rop
im proved
In it
L iver
Belg ium
w aters
significant ly
prem ier
represent ing
onom y
count ies
Mat thew
13 th
Year s
as tru
z h
ou st
gh an
ig ins
af fect
w ins
C S
ik ing
Bu ff
play off
hum ans
Pier re
G h
ograph ic
Up per
el and
repe ated
Fin land
frequ ency
w ound
appro pr
miss ions
D all
id ae
190 2
L ith
pro ced
ad jacent
ann ed
olog ies
Pit ts
Alex and
S ign
Treat y
popular ity
register ed
franch ise
Rober ts
ap ped
st an
Sp ir
bl ing
co hol
C ow
Fr ied
T el
Com ple
Pro test
partn ership
p se
ed ited
ang le
need s
j an
scen es
Frank lin
í a
b odies
est on
N el
Phil os
m ort
rel ative
ce ased
Pr incess
fact ors
f fe
gradu ated
dem ol
A br
Russ ell
G ill
ch a
ord an
Stan ley
P ed
back ing
se lect
ad ult
T ower
li qu
MP s
Dig ital
Bow l
log o
Mar ie
ic on
En vironment
fre edom
Sat ur
cr icket
inst ance
ic ide
ot ed
requ est
Kenn edy
s urn
i ac
C ost
territ ories
fin ish
or ph
good s
ch en
ham mad
sat is
f ear
vis ual
actress es
adv ance
Bern ard
Anc ient
12 th
H om
In fantry
ell o
May or
iam i
host s
call ing
P ot
br ain
cerem ony
be ach
urr ican
z z
lead s
app ing
Con stant
Cent ury
d or
communic ations
D ak
gre es
if ul
passeng ers
net ic
crimin al
Lt d
iam ond
provin cial
V in
re put
jun ction
gen re
M ap
15 th
nor theast
Ex ecut
b ing
Hot el
qu ite
ent ed
Bor n
il ed
M iami
R ang
Mag azine
ac compan
Ed in
astru cture
S id
spe ak
int end
Ma ur
instr uments
Col lection
Vol ume
the astern
ack s
R ivers
el ess
K a
res igned
re place
fill ed
f ashion
Ch ampions
An gl
sv g
con secut
H indu
portr ayed
H op
fund ing
k es
o bl
Pr ix
graph ic
S et
Fle et
north west
vis ible
Y an
sur vey
employ ees
G ulf
F a
capt ure
f old
re cru
power ed
po em
ic it
scor ing
G ran
h att
N ation
ust er
ay er
Up on
Produ ction
Ba by
dec ade
Ph oto
person s
ile y
Gl obal
E R
im prove
wall s
head s
J am
design s
G irl
mom ent
L en
eas ily
stand s
ades h
m ine
M ol
Com mer
de t
d iction
u th
mis try
M urr
Stud ios
b atter
L ane
== ===
Anton io
K night
N ag
Town s
Stand ard
um a
os lav
tr ip
polic ies
A y
B ed
in er
h ers
press ed
Th en
se ctor
Me thod
R y
Or chestra
8 00
de vices
ter ror
il ing
inem a
D og
oth ing
War ner
en h
ne utr
reach ing
cre te
agricult ural
land ing
A er
Edin burgh
is ol
K ev
f lying
b one
sh ift
c atal
at ab
gr av
CD P
Cult ural
ob tain
P a
M att
D y
bro ken
c ards
fr ag
ac he
circ um
oc ese
fund s
law yer
Re v
l ord
\ ,
th ors
Gu ide
G or
football ers
Pr ior
st ating
af ford
d ies
colleg es
spok en
doc uments
m ail
cost s
Christo pher
Ad ams
arg o
W A
ie ge
sh ut
Add itionally
n av
l ap
guitar ist
dr ivers
comm emor
us ers
adapt ation
Ke y
join ing
differ ence
ent rance
experi enced
C ry
pur poses
J ay
ey e
Ad mir
C ra
ch ant
K er
'' (
und ers
14 th
Air lines
W ard
M I
Atl anta
re ality
T i
Ste wart
ant ine
Tr ail
d ish
fect ure
Comm ander
E ver
é s
N ever
c av
el le
Ch ile
c ue
purch ase
ann on
pol l
cap able
oc rac
inter ior
cle an
sc ar
im ore
Se attle
acc used
189 8
N i
de grees
ro of
consecut ive
his m
ul ate
techn ique
Spe c
schedul ed
h ired
T ax
ag ues
Budd h
Af ghan
c od
C atal
evol ution
D od
ass ass
F un
st ress
ch ron
end ment
ul es
Camp bell
8 th
On ce
ig g
r ies
Mor ris
found ation
ate ur
in ian
ut ions
Al aska
m ate
In t
val id
own ership
as ts
ele ctoral
vent ures
u v
in aug
M organ
escap e
10 th
con cluded
lin ked
B illy
st ances
exp and
ann els
o en
re tain
represent ative
con vict
comp onents
V ice
c ateg
** ''
med ium
N a
9 th
f al
hom es
ban ks
Administr ation
t as
B un
189 9
Ab d
prof ile
F al
B ible
Jun ior
aval ry
t ropical
jur is
R ow
Arch ite
J ordan
G am
s ion
sh ore
per haps
mark ets
p up
bound ary
the tic
Def ense
municipal ities
iv a
S had
U E
high way
add ing
re tained
ab sor
requ ires
L ang
c ular
189 6
ling ton
ch arts
com ics
trans ition
And re
Ca thedral
Publ ishing
Argent ina
ell i
Walk er
es is
isto l
opp ing
Bar bar
condu ct
Kar l
op les
sw im
Jos é
lin ear
employ ment
pro ceed
var iant
olog ists
promot e
Hamp shire
g arden
res idence
S om
be an
ag h
record ings
Can al
direct ors
ap olis
south west
fir ed
legisl ation
189 5
S ud
Mot or
pred e
ass ess
All iance
per fect
prote cted
class ic
% ,
gr ass
charg es
car to
L C
Polit ics
detail s
st al
ins ur
je ction
separ ated
it ems
dif ferences
P un
Lith uan
F arm
F ood
gress ive
col lected
other wise
X X
manufact uring
| '''
R ena
Ap ple
K on
se lection
gor ith
des tru
G a
n one
critic ism
B eng
promot ion
paralle l
U C
cr isis
w el
ton s
av o
ig e
fin ite
f est
hundr ed
class ified
R ain
au tom
rest ored
B I
in fl
sou theast
D NA
An dr
Municip ality
Murr ay
m u
cons ult
B enn
d ating
at us
C old
Pers ian
r ivers
s now
Res erve
se as
represent ation
\ \
rail road
Liver pool
ell er
just ice
De put
Boy s
tell s
Lu ther
increasing ly
T S
B ud
R ights
og ical
Cor n
ten nis
m arch
p m
inter ests
N iger
i ates
deliver ed
sugg ests
dis tributed
NH L
187 0
ces ter
we ak
Kev in
Batt alion
Balt imore
execut ed
ak ed
rough ly
K az
philos oph
ch annels
sc ious
M ission
v ens
188 9
che ck
comp ut
res iding
Pitts burgh
d6d6 d6
Con vention
_ title
pract ices
Pr uss
meas ures
al cohol
cl ar
ors es
Writ ers
188 0
tal k
By z
dy nam
ocrac y
ap y
ik i
Dall as
Egypt ian
t act
mod ified
cour ts
eng aged
ret ail
G et
desc end
under standing
W on
par ks
hot el
L ower
K ur
ob a
critic ized
em ot
S in
F und
Pl at
ap prov
Elect ric
Langu age
s ession
elect ron
st ance
cl in
c uss
no thing
Cont rol
John ny
d an
investig ation
gr ave
K in
W right
A ch
or ial
ter y
ele v
O w
influ ential
O R
Ch amber
express ion
re ferences
res ign
189 4
H ockey
dut y
stor m
att ached
fl o
ult an
a qu
Ar n
Satur day
Bro thers
ant ly
W o
m ilit
coast al
f resh
h its
u ct
d ress
ter ior
A L
z ero
ag ency
hon our
l u
compos ers
Marsh all
Mark et
fe ed
disc ipl
sever e
: //
ger y
im ag
Ukrain ian
manag ers
Ang lo
tw elve
= '
Thom pson
as ure
process es
ment al
h tt
Sy n
Pol y
foot notes
cap ita
n ations
concer ns
en ess
Fl ight
shap ed
m arg
min ing
GB T
i ency
ad r
G M
c ill
Be ck
Ag ain
Kel ly
D ance
st ret
ik h
train ed
m ud
neigh bour
thous ands
curr ing
p ian
sk in
ffe 6
B lo
188 5
in ations
Nel son
business es
pre ad
ol i
p i
ff ffe6
regular ly
accompan ied
Car ter
k h
can cell
carr ying
teen th
R ugby
r ay
assum ed
F ern
ming ham
Ark ansas
am an
secret ary
try ing
B our
_ 2
R ick
ut il
m me
g irls
mov ements
E U
Al b
L GBT
Tr ade
H ud
dr iving
saf e
dam aged
Vi enna
Re port
de leg
batt les
Co oper
C H
decl ine
bo ats
D F
Fl ag
lo an
k id
R ap
S of
au thors
N am
tex ts
mph ony
Jim my
r ar
amp s
M ess
pr iest
ia h
ass er
N ar
J enn
On line
m ode
end ar
Al ban
t ure
ather ine
expl os
decl ined
enter tainment
depend ing
test ing
Mic hel
pat ients
cr ib
m dash
le ase
mag n
ic ial
min isters
th y
ac le
Econom ic
Finn ish
plan et
Me an
189 7
Queens land
S ri
ac re
W a
ac commod
Bir mingham
w ides
Author ity
l ights
re con
Bapt ist
Wrest ling
th al
M ong
cho se
liber al
se ems
op tion
Man hatt
surv ived
b ran
in stru
Univers al
Ty pe
ok ed
Ben j
replac ement
Pe ters
div or
init i
V iew
Ch ild
coach es
trans mission
Roman ia
fall s
ist ical
Manhatt an
f ine
dis p
ame ter
Ur ban
ing ham
Cl imate
usal em
Tr ad
Profess ional
hy po
im prison
man us
extrem ely
subdivision _type
metro politan
R ud
Execut ive
down town
ex ists
em peror
F ictional
u ters
Bl ood
m aker
d ess
ev al
ann y
G y
in ct
ret t
cycl op
term ine
members hip
S n
represent atives
ab o
en sure
Rob inson
189 2
moun ted
Christian ity
C ass
med icine
D enn
D a
sp in
le m
tr an
I an
189 3
L ud
g au
c ous
I ce
vol unte
tr ou
hers elf
An na
F em
descr ibe
ten ance
ass ault
ad i
G ary
wor n
pro hib
al ge
Jer usalem
e gg
inn ings
a head
al gorith
deb ate
U s
spirit ual
occup ation
sh if
he t
Gl as
over e
w itness
prepar ed
Comp uter
de termine
rane an
L ost
constitu ency
stor age
c able
sh ar
ren ov
Gr ay
ve get
l is
_ i
Bel gian
celebr ated
N ash
r ice
Car ib
1920 s
Colon el
th a
do ctor
contribut ions
Y ug
f ishing
citiz en
S I
invest ment
br onze
list ing
m obile
FI FA
h ed
ear ning
J acqu
wh y
Fre edom
re presents
aff airs
in fe
chang ing
ens es
subdivision _name
as p
V ene
Brook lyn
Ph oen
strateg y
pict ure
il i
Cap ital
rat io
O range
cour ses
pron oun
ex ception
Not e
11 th
sw itch
Brig ade
thr one
pain ted
prison ers
clos ure
Be g
N C
ve ter
popul ations
z i
M ale
sche me
ph i
Sen ator
id el
York shire
dr iven
Sh an
c old
enc ing
exist ed
H as
controvers y
aspect s
cred it
con scious
r m
h ur
Main e
CE O
Back ground
cover age
B ab
as sem
sp aces
soc cer
int el
Prim ary
Leg acy
N O
ex pedition
organ isation
ac counts
emer ged
ess ions
a ire
arr ival
long est
gr ant
indic ate
umb ent
189 1
Gra ham
histor ians
prede cess
H S
k ick
descrip tion
tem por
comm itted
w ine
Mr s
pra ised
188 8
dep ut
J azz
Sh ah
con vention
i op
v ow
Dak ota
th ick
Del ta
P ad
ur ers
l ists
B arry
it als
Gu y
B art
Sim ilar
Ot t
v ant
Aust in
dis put
stre ets
Col lins
be ar
En cyclop
Fall s
Br and
net works
D E
dut ies
P ir
G on
trans mit
population _
ren ew
A gency
Benj amin
N CA
effect ively
overe ign
H end
sof t
hel or
cir cuit
transport ation
St ars
offer ing
Arab ic
re p
reput ation
Mov ement
re pair
process ing
r and
ig ma
the ater
conserv ative
Pict ures
sequ ences
Gre ater
R yan
trib es
m ist
acqu is
opportun ity
D aily
w arr
A F
ex ternal
y ers
Th or
appear ing
V ic
P il
phen omen
re pr
le man
1 10
T oy
rel l
constitut ional
Sc ient
h n
id ency
imm igr
respons ibility
N av
Pl ot
Pat ri
produ cers
e ffic
inv ited
c rossing
E mer
u ous
bor ne
Mod el
ordin ary
C and
Ut ah
Y e
Spir it
f ighter
replac ing
ard o
sing ing
re ally
t ack
V ers
m und
R ace
W es
design er
ab led
ref uge
con qu
man if
c ock
Buddh ist
H z
ser ver
Indones ia
mess age
wides pread
Sup port
at tributed
cl usion
E E
g on
Un like
rel ief
Warr en
Y outh
St u
require ments
S or
cas ts
í n
resident ial
compil ation
D ata
or us
activ ist
Ed ition
inn ov
w ed
Rich mond
ge ome
skill s
l ob
S O
film ed
le ans
Mer c
N T
L ate
Act ress
R est
class ification
az ines
em en
Co ok
dom ain
Sm all
im perial
prom pt
M ack
g ets
parliament ary
en er
po ets
intel lect
Chair man
B ot
B aker
preser ved
v ic
so il
occasion ally
find s
b ach
188 7
186 1
propos al
arran ged
vess els
: "
Roman ian
p ure
her itage
En ergy
Col omb
urrican e
exhib ition
" ;
g ow
opin ion
sto od
pro of
inj ured
at mos
p ine
exer c
ik es
C os
trad itions
fem in
sol ved
week ly
seven th
o a
B h
bell ion
P ul
Chr on
an ia
Char lie
ling u
di agn
surn ame
fil ed
M ans
M ales
The od
man ner
ic op
id ers
appoint ment
e fficient
in stitution
Pr inc
view ed
S uch
ch ampions
Co de
char ter
R ing
D uch
stat istics
Agr icult
ong o
keep ing
ens is
Yug oslav
Way ne
st ages
paint ings
sh ops
Play er
Econom y
T on
con stitution
c ott
M ind
ro ots
Med iter
subject s
F ul
R ank
it ime
hel m
princ iple
strong ly
K ill
off ensive
uc ks
achie ve
continu ous
He brew
S we
vot ing
sec ure
7 00
controvers ial
flow s
Stud io
with draw
w ire
surv iving
consider able
ament al
cam era
stop ped
lear ned
publ ishing
Liter ature
ut s
r ub
ou ver
he ir
locomot ives
equip ped
Or leans
business man
P R
bre aking
R ound
sup posed
graph ical
R io
Nich olas
use ful
e ing
Def ence
A ma
crip ts
188 6
c hell
second s
co graphy
Form ula
De an
Ch ang
vo iced
r hyth
Ar ound
some what
: ''
Nap ole
K now
where as
Organ ization
ra ise
Mediter ranean
vis itors
Con struction
Oper a
phys ics
é t
sett lers
E qu
Common s
Mu hammad
n om
es tr
sat ellite
Le ban
norm ally
plat forms
minim um
186 0
c ad
pe oples
plic ations
Malays ia
Territ ory
en counter
ish ment
H ind
Nov a
A dr
ok er
W he
H D
pl ed
ex pect
s ave
uni form
tr ie
) '''
M ix
M em
fl ed
H unt
co at
get ting
os a
to ols
approv al
F itz
pat rol
govern ments
cy lin
igh ters
P ont
Vene z
p es
D ist
scient ists
Is a
F ab
g le
lo be
them atic
g rown
t u
186 5
st all
atab ase
Cr icket
Protest ant
big gest
cir cul
theor em
pro vis
cl er
Hud son
vol umes
188 1
sty les
Ret urn
in put
ul u
m ob
seg ment
test s
K an
H old
ic ation
L S
Jon athan
cuss ion
è re
in fantry
great ly
sequ ently
stru ck
b ay
t ask
it able
de ed
ex patriate
im ination
bring ing
Sl ov
os aur
bound aries
prote in
infr astructure
w et
Legisl ative
ex pos
A ld
expl ained
emer gency
Ind ians
g i
1 000
per t
def ensive
benef it
d ol
am pton
id en
collabor ation
th in
ad mitted
Cl inton
I van
newsp apers
Il l
Broad casting
trad ing
rele ases
ex ec
assist ance
du b
T E
it i
C ad
In vest
po le
stat ue
ir t
ox y
for cement
sh ares
start s
eng er
dep th
Un it
Pre fecture
W oman
RA F
resol ution
quest ions
188 4
cess ion
G ate
ind ing
Carib bean
weap on
W ing
V anc
integr ated
And y
mathemat ics
cab inet
comp onent
el er
mountain s
os h
l ane
or ing
in dex
B ull
ot y
M D
de pos
gener ated
Jeff erson
Per forman
rup tion
Albert a
C ase
ö r
ann er
Gl en
carr ier
compet ed
termin al
ay an
T ol
Harr ison
i ot
Med icine
ag ents
Hor se
b ol
bro wn
P y
Sh ip
claim ing
Z h
Vanc ouver
L E
Mic ros
P ow
p unk
as sembly
t ie
Origin ally
German s
lay er
ac ed
appropr iate
ud es
w ig
res erve
Hit ler
G irls
I mp
j et
Gre y
Christ ians
ele ven
K it
period s
186 7
aster y
188 2
str ict
R oc
provin ces
St aff
Ch o
Th er
du al
Rec ip
B omb
Ex am
ack now
Ste el
brid ges
ist ed
k ar
iz er
convict ed
se cur
é n
character ized
ish ops
! !
po ems
au de
ann ually
rapid ly
treat y
D J
Sy mphony
person ality
fin ishing
cl ock
D oc
187 1
F ather
g one
and al
Sen ior
mor al
return s
Br on
am id
Hawai i
fl ights
G oth
M is
last ed
O d
y ield
publ isher
art illery
Bl ues
r ian
min ster
Nob el
A ction
r ab
Car los
A qu
ut t
loss es
186 4
even ing
Sing les
Communic ations
L ank
c aught
int ention
194 0s
Char lot
col ony
alge bra
us age
rom antic
P age
domin ated
Priv ate
Ter ry
M ul
frequ ent
Micros oft
par ent
instrument al
in als
P rom
} ^
st ery
bran ches
ac compl
Death s
T ag
Jer ry
sign s
jun ior
Byz antine
Social ist
cus to
liqu id
mass ive
t ap
T ak
nick name
i od
R S
profess ion
Barbar a
n ur
UE FA
System s
In stead
le ton
Mit chell
re mov
Sar ah
Ma j
br ig
broadcast ing
186 3
tre ated
war m
cent ers
S hel
princ iples
J ason
sh ield
Democr ats
and o
ey es
) "
With in
grad ually
op her
Port land
appe al
hor ror
ific ial
All ied
S ultan
S aints
Lim ited
f ur
H ur
Glas gow
pl ain
grad es
dis covery
el der
dis established
Se ction
lim its
187 6
S ex
ash i
exp ensive
elect rical
Pe ak
M other
chap ter
mon ument
to x
r ating
in spir
d ict
ip h
Curr ent
d ang
Iran ian
M arr
Al umni
inter ested
ro ot
M all
T ed
phr ase
ide al
tradition ally
A x
mon itor
our ed
Dr agon
Pen insula
au re
agricult ure
Al ice
convent ional
o h
public ations
comp ass
st ad
10 1
S ide
colle ctions
Fran ç
s ight
est one
Origin al
18 50
ch ance
s end
de ck
un c
sh all
T ig
r as
b is
vo ir
" '''
Ne il
g ear
en z
re ck
p ng
sup porters
187 8
ol ia
ad u
K id
Nor folk
oper ational
y es
temper atures
S now
compet e
pr ising
ran king
R ico
Kn ights
f at
Ev ans
p apers
? "
main tenance
cir cle
enn ial
Tr aining
ve ctor
Park er
T s
R ot
h orses
vo ters
in tr
m ology
Venez uel
186 2
S r
onym ous
Ott awa
nomin ation
Mon te
c ia
In tell
find ing
pass age
rul ing
or chestra
K ay
P ack
destru ction
Al tern
k ov
ext ent
ch amber
wor ship
hu ge
ar ter
particip ate
V el
Compan ies
ire ct
Phoen ix
Hun ter
C u
et a
B O
experi ences
B ranch
og le
indic ated
v ide
v oy
re li
Ch er
coordin ates
pract ical
Cl ay
ult ane
mechan ical
eng then
Industr ial
af ts
Mar x
D in
qual ified
P ic
ot es
cult iv
demol ished
Confed erate
_ 0
Charlot te
188 3
Par ish
lic ense
ag encies
wound ed
mer ger
sub marine
Admir al
Athen s
part ly
He avy
B asketball
Tr ump
part ially
Ex t
Ch all
ser ial
fr uit
P le
} (
continu ing
Min or
fel d
ro pol
Nor d
Fran ces
equ ation
op tim
experiment al
su d
if ies
complet ion
S ite
ww w
A pol
P sych
Offic er
def ence
Ab bey
U P
den ied
L arry
vel t
M O
D O
concentr ation
186 8
ess ential
con gress
s per
i h
t ag
Av iation
Build ings
ill o
L ion
ind igenous
sold ier
p ip
P el
! "
o cean
them es
ext reme
substant ial
Ste vens
draw ing
un ch
red uc
bal ance
fac ing
p od
_ date
ne ck
is ations
can al
Muslim s
K ath
minor ity
187 9
character istics
R idge
ig o
invol vement
Class ic
J ama
f antasy
Tr inity
bl ank
ent ering
chall enge
su icide
relation ships
The ater
res em
Mar s
Kir k
gen etic
US S
con fig
ent e
m emorial
domin ant
g el
public ly
um ed
thous and
Her bert
sp oke
reg ation
Performan ce
pre gn
184 8
pred omin
re cept
un iverse
187 3
Pl ant
Rang ers
rul er
shoot ing
coal ition
conne cting
ex cess
Angl ican
187 2
reg ime
ad just
old s
Un til
itar ian
form ula
N ature
Ro ose
B E
uk i
n an
Academ ic
sound track
Sh akes
L ock
implement ed
os ph
wood en
il st
cas ual
ail and
Victor ian
pat ron
Mil an
dep icted
under ground
comp ress
V II
Y am
depart ure
am oun
surround ed
E li
ict ing
T ang
Sl av
the at
ak u
L ov
Afghan istan
conne ct
Turn er
De funct
arrang ement
invol ves
correspond ing
L O
Rac ing
Sh aw
sim pl
ou ter
br ight
Gab r
ass ign
D ays
child hood
to mb
Buff alo
Br istol
detail ed
recomm ended
R ub
bu y
Pro to
Deput y
t one
n u
Re ception
Ne br
Th ailand
hor iz
Ap pe
St age
per ce
Al ong
pse ud
Mag ic
Der by
land scape
Al ph
jour ney
tra its
Char ac
leg it
g ay
ah am
p x
oth y
N G
do ct
cricke ters
mach ines
h ole
Recip ients
et ch
Cr ime
Shakes pe
att or
if er
under stand
bor ders
distingu ished
der iv
T as
tr ibe
manufact urer
ish ers
Independ ence
aim ed
V ID
ap se
187 5
Philipp ine
18 00
ar o
3 D
t ied
Roose velt
L loy
op ol
all iance
iv an
interpret ation
attract ed
ens ional
Nebr aska
h aw
ad er
coun ted
ur ally
anth rop
B ath
re member
ab il
ran ks
un ited
the ories
p and
origin ated
pat ient
Spe ed
og a
wr ong
elect ro
Del aware
Har old
Ex pl
comp at
air line
map s
or igins
187 4
hand ed
c m
ad minister
ph al
st ayed
defe ating
d ream
ber ry
Wh ere
vict ims
licens ed
lo op
g ard
suit able
viol in
did n
ne ither
wear ing
R ic
ag ree
novel ist
to ol
hundr eds
M uch
b ath
m ates
arr est
ol o
astr onom
Vin cent
r iding
satis f
ac o
E vent
re h
settle ments
V lad
cous in
lear n
cr imes
immed iate
wind ow
ann ex
histor ically
ge on
av an
ik o
compet itions
reg iment
en berg
fin ed
step s
Sch ol
ang a
concer ned
hy per
Ter min
Har bor
spe akers
Mac ed
Shakespe are
Be y
e u
F isher
K ö
e z
186 6
Spr ings
ed itions
int ent
any thing
Gu ine
od ge
vert ical
Nev ada
app ly
writ es
P ay
sle ep
spons ored
abs ence
I cel
st ers
Techn ical
Gram my
scient ist
ex cell
om s
ur i
Bang l
187 7
beg un
Con cer
poss ibility
il legal
g olf
Ma themat
bac ter
od a
rand om
teach ers
r t
Ol iver
er als
row s
ab sol
re venue
S oul
incre ases
sports men
ix on
vol can
corpor ate
Rena issance
re ception
me tres
Stu art
Icel and
map _
_ n
13 0
Air craft
Dr ive
bl ocks
t anks
ak ia
susp ended
se ed
Jacqu es
is k
loc ally
ar an
turn s
L ad
St orm
pers pect
Co al
Tot al
man ga
Athlet ics
im ir
S omer
ok a
A ut
at on
Rog ers
F iction
benef its
advert ising
ed a
fal se
er ies
high light
drum mer
F if
turn ing
squ ad
S ah
on aut
C inc
super ior
ph on
r ush
t urb
Lloy d
Mar qu
ch t
expl o
col ors
premier ed
s overeign
C hel
see ing
Ad ela
tr am
ment ion
id den
w right
Fer r
I X
Mean while
CO VID
N umber
R ight
redu ction
p el
produ ces
V as
if ican
hy dr
Fil ip
C atherine
sim ultane
B ond
subsid iary
vari able
R ou
Y ale
kn ock
access ible
cerem on
W ed
dram at
percent age
inj uries
tun nel
Z one
Cinc inn
affil iated
Man it
r idge
re move
186 9
manufact urers
um s
Arch ae
remain der
Art icle
se es
sur gery
dis tribut
restaur ant
sent ence
ifican ce
fund amental
miss ile
la very
sup ports
nuc le
v as
g s
manufact ured
fund ed
ident ify
M ak
deput y
Par ks
Public ations
N R
consist ent
T H
j ump
St art
re built
run ner
Am endment
Ke ith
indic ates
G A
h arm
Mad rid
ess ay
seek ing
G P
ens on
ah n
journal ists
Hol land
G ur
tr iang
B es
Re ich
for th
M ason
Dis cography
oust ic
am ents
S ic
Con s
Ser ge
P in
I M
contin ental
Ch ampion
F ull
conne ctions
ent on
restr icted
in hab
Jo an
daugh ters
kil ome
u ations
Cub a
h l
re vers
K le
phys ician
Go ogle
az e
en to
Inter state
coun ting
N ep
Cincinn ati
as sets
Mad ison
opp onent
debut ed
disp ute
Tran sit
R alph
will ing
Relig ion
Mar c
mag azines
K il
iz z
den omin
drug s
philos opher
encour aged
hold ers
concer n
for ests
e asy
con version
art istic
Ar ena
cul es
M ut
pro xim
comp uters
He in
s oul
K os
S ant
er ror
ma thematic
ev il
Arch ive
Denn is
g us
sl ave
qu ir
Lu is
pattern s
ex port
g om
r ide
ail ed
Gabr iel
C urt
vess el
sw ick
w at
S ão
plic ation
pan el
ol id
ge ograph
math rm
Cra ig
prop ag
mechan ism
friend ly
LGBT Q
ke ley
Br id
civil ian
D iction
comp reh
am ing
un usual
reported ly
Adela ide
In n
mov ies
elect r
cal endar
sup plies
aud i
An y
indu cted
Ve gas
De ep
categ ories
mart ial
Exam ples
hel icop
sw it
C R
Ch and
t z
establish ing
predecess or
k new
ro d
BC E
threat ened
NCA A
auto matic
ch rom
se al
cho ose
W as
portr ay
con ven
ig ible
dis played
Cy pr
H app
B ald
grand father
form ations
he ar
T at
h unting
pal ace
pro t
Ob serv
f on
f ab
d iver
Serb ian
rest oration
st im
it ter
expl icit
gu ide
fac ilit
mov es
Class ical
" :
arg ument
Lu x
rar ely
c ope
A ctor
New ton
comp ens
key boards
o oth
185 7
ib n
the l
ul ations
Play ers
re mot
Ch art
G T
P P
dem ocr
G ust
R us
H ope
Ste ven
Sp ider
deb t
con crete
sent enced
Serb ia
viol ent
ab use
re vised
_ km
L anc
M ann
i ology
Cap it
Sing h
H ond
co ins
Revolution ary
ij i
research ers
evol ved
gau ge
N ame
acknow led
b ag
un cle
meet ings
v ul
M alt
low est
st ick
Friend s
p ent
ent ity
A bu
bas es
B av
b ie
Co ach
strateg ic
Rob in
H us
S alt
crib ed
occas ions
ow ski
back s
om on
it is
P ut
Jo y
Eth iop
cancell ed
lie utenant
D iamond
West minster
Mov ie
mat ters
f itted
sy mme
c iting
concer ts
e ighth
Y ellow
A N
F uture
e at
A str
me at
su gar
as ant
Tran sl
rend ered
all oc
ab or
f ol
industr ies
med iate
abol ished
ten ure
organ ic
G ay
B rew
h ope
Fr iday
er as
Per ry
ver b
lab our
Gro ve
Brun swick
cl o
Encyclop edia
c dot
n it
sequ el
c avalry
g ence
ere cted
cl an
G as
185 9
was te
b ast
tru th
ar io
appar ently
happ ened
ac cord
een th
ath ers
A ges
p ill
G S
em br
let t
A ber
V III
on ian
f oss
rad iation
ic ing
b anned
insur ance
res cue
Liber ty
don ated
juris diction
she ll
bus es
Bob by
. '
D R
Y u
le af
market ing
pitch er
_ _
Abr aham
fact ion
Fried rich
crow d
writ ings
am pl
K or
G iants
re ction
Treat ies
dim ensional
ak s
Stud ent
prefer red
Cont inent
ident ical
In do
Wall ace
em ed
anal og
discuss ed
pr ize
gu il
job s
diale ct
K ap
fr on
Con f
am er
Jud ge
r ising
Qu est
clos ing
dou b
I BM
St ill
D ow
attract ions
sl aves
k ings
re located
b old
S ay
custom ers
des ire
f urn
exper t
sh opping
F ish
aw ar
Sal v
ear n
Arn old
c ash
Z im
C B
id o
sign als
Argent ine
Web site
id ad
min es
depend ent
min i
tw in
or ous
rev ival
en burg
hard ware
p to
legisl ature
f asc
appar ent
am ateur
Th ir
phys ic
Ber keley
migr ation
b ab
dec isions
j er
S ox
N ine
P O
orient ed
acquis ition
is ine
or bit
meas ured
12 5
circum stances
me ters
T ob
K l
Bur g
per cussion
ele mentary
L akes
Gil bert
NA SA
he aring
altern ate
Short ly
Chap el
Con temporary
b its
Won der
f iles
un certain
bl ast
ier ra
ongo ing
b ull
p y
ad mir
hor n
sud den
comm anded
ar us
Island er
L ot
se min
Le o
particip ation
n ik
} {\
im al
K O
cred its
P ast
be half
d iverse
gre y
Sus an
exec ution
vis iting
ex tract
Br ight
suffer ing
ens ively
es cor
r ender
Cel tic
Gr ade
tour ism
M B
t ape
pr ices
Eag le
agon ist
me ets
imm igrants
Mor oc
osp el
og an
ev a
oxy gen
br ick
Ex change
H ous
B ros
port ions
Ste ph
mag netic
um i
am ph
ail s
Pear l
r ated
ck er
ew ay
I v
m akers
mot iv
after wards
emp ire
reduc ing
Per u
There fore
h ence
r ational
Ch ester
clos er
ex posed
stro ke
pers u
curr ency
P E
expos ure
er ia
ill ness
exclus ively
enjoy ed
Intell igence
leg acy
P i
f lex
pen alty
est e
Char l
Ed die
gr id
it ure
strugg le
medal ists
Bat man
Ad van
North west
e igh
ne e
con g
Col um
lin ed
mon s
all ies
Ed wards
P os
H em
rad ical
d ia
help ing
=== ''
cl othing
legisl ative
ah o
V oc
185 4
h ub
O il
function al
u ing
ir i
dis missed
N intend
por trait
ev ac
. '''
1 15
W u
est yle
Diction ary
An tar
Br is
But ler
av ia
C au
en cer
sh ock
z ing
mer chant
sp ar
dis continued
av i
negot iations
Manit oba
ibr aries
activ ists
influ ences
Hel en
A E
R i
Nintend o
id al
implement ation
S ony
carto on
organ ised
N an
185 8
of fee
Gr ound
swim ming
describ ing
hol m
C art
ic ism
V P
au er
lo se
compet itive
conserv ation
to uring
s ample
un like
con tribution
wrest ling
myth ology
Environment al
sign ing
every thing
pol ar
S ug
sign ificance
ex cav
S ak
Hugh es
to od
ach ment
Sy l
V A
Democr at
W inn
re forms
Max im
t ub
bi ological
Camp aign
E ston
S ull
le te
Mun ich
earth qu
Ven ice
or ious
arg ues
murder ed
p sy
''' "
A ar
Be aut
Hor n
Jul ian
st ones
Tr ain
character istic
Ray mond
M T
playoff s
ick en
N y
respect ive
B io
I F
su ff
do ors
or o
nomin ations
C ob
th um
ch lor
ex ceed
discuss ion
deploy ed
grad ed
Init ially
touch down
log ic
Mill s
v it
ic ate
sol ar
ing ly
jud ges
poss ession
augh ter
c argo
ue z
dis cover
Camp us
s alt
Leg end
exerc ise
-- --
Art ists
F ace
B ear
Col leg
Isa ac
_km 2
ab ad
H il
re covered
point ed
Th ose
unders tood
distin ction
univers al
p end
ad vice
tit ude
cult ures
ol ics
symp toms
Ch i
Har vey
push pin
J ar
ad ow
Ti bet
Den ver
di ameter
Pro vin
inc idents
var iation
as er
an ime
kee per
pand emic
Chap ter
R an
Pol icy
185 6
narr ative
refer ring
d al
now rap
hydro gen
Pr ison
R at
regul ations
onom ous
wid er
d oll
ran ging
pushpin _
str engthen
as i
sp ending
quant um
chap el
conce pts
it ic
H av
S ask
A st
J ava
Th under
fall ing
the t
Through out
Week ly
Further more
condu ctor
tour ist
m emor
Pro gressive
prom in
Sur vey
Wil helm
Ass ist
L em
Greg ory
w aves
s iege
Popul ar
Mach ine
10 5
else where
Bulgar ia
le vard
rad ar
qu ad
trad ed
for cing
18 40
Mont gom
} ,
Croat ia
w ars
in se
it ars
colon ies
Leg ion
Ped ro
econom ics
185 5
vide os
demonstr ated
os ed
Or ient
bank rupt
Montgom ery
or ia
invent ed
elimin ated
synd rome
om ing
ip er
Bo eing
ich i
n inet
S ul
trans it
G ang
ches tr
Arch bishop
rol led
Vill ages
ra id
anch or
P ain
farm ers
clear ly
as a
Oper ations
Cit ations
H ann
look ed
abo ard
stud ios
Flor ence
Mur phy
Guine a
dang erous
Tro phy
F ight
beaut iful
Gen e
A B
T each
N ear
de z
Comp et
iven ess
war fare
Sing le
ven ge
recomm end
u able
av iation
Ch anc
R ange
il der
coll apse
f ighters
k ir
de e
respond ed
9 00
wa it
exclus ive
pr i
Sou theast
Mor ning
cross ed
ol ph
B og
dis order
N ext
ab bre
G E
Sc ar
among st
c odes
Ind igenous
G N
Sc out
Athlet ic
ip per
Es sex
) )
cond em
Man uel
graph ics
rele g
sched ule
Bangl adesh
art ificial
cons olid
anc est
amp a
Tre as
inter section
r h
Leon ard
secur ed
Hon ours
ac res
char ity
T ab
W ag
E ld
deliver y
F o
Sof tware
peak ed
Mont ana
Croat ian
T went
inhab ited
end or
cor n
any one
N one
ark ed
design ation
Gard ens
ach i
championship s
ac oustic
commun ist
recogn ised
Cath olics
pet ition
Rol ling
C row
proto col
ke ys
pre t
campaign s
pain ters
init iated
Tr av
Arch ives
main land
D aw
ann i
Industr y
ü n
H ad
S ig
ad venture
C ot
b ane
rele vant
concer ning
number ed
in um
remov al
g ross
co in
af ted
Fin ancial
architect ural
D ub
un less
- \
honor ary
Armen ian
end a
com fort
s essions
ur an
NE S
young est
et ical
exper iments
Phill ips
accur ate
Soc cer
ess entially
Fer din
cre ative
hel ps
W C
1 14
travel ed
Sy ria
D est
P ep
r im
Napole on
en forcement
er on
novel ists
plic ated
compet ing
Chanc ell
at che
M am
thir ty
bi bl
sound s
s ung
sust ain
S creen
ipp ing
c ogn
Guard ian
Philos ophy
var iants
E is
plac ement
un successful
spec ified
w ings
ou ch
Pr ice
Lead er
ie th
t ube
print ing
O C
% ),
le v
To gether
intellect ual
is c
av ian
wh ilst
ex tr
Maur ice
W ang
d well
Re f
qu es
anim ation
Sull ivan
An al
expl an
Crit ical
spons or
week end
t um
Int rodu
Continent al
RE D
tax es
iss ions
i ón
con vin
Res er
Tam il
Des cription
restaur ants
ex h
flow ers
1 13
bus h
mem oir
au kee
Ac cess
surv ive
amb da
produ ctions
ah a
to ured
opportun ities
ther apy
museum s
m ary
the ta
dr ag
sur ve
Prince ton
c inema
per mitted
Ca es
ó w
W alt
pr ince
H L
ort ion
fest ivals
Out standing
Ver mont
em ies
pl astic
B ass
to ck
ul um
ac on
Rh odes
M ust
che mistry
Stud ents
F ine
New castle
elf are
photo graphy
1 12
Gr ace
ML B
Fran co
inter change
EC T
main stream
Produ ctions
re vol
F lying
l ift
tr ials
L ink
Wat son
flu id
affil iate
; °
attor ney
emp ty
Tom my
Nov els
F ly
D ale
h aul
comp ound
con spir
expl or
it an
Mag n
184 9
El li
ad ults
descend ants
perce ived
Re form
oph one
success ion
assist ed
un incorporated
b ishops
wealth y
Plan et
in struction
key board
G olf
pat ent
sh aring
T win
land ed
be ta
ij ing
b ott
particip ants
1 17
gian t
no ise
ose x
algorith m
out break
S oon
185 1
Mic ro
ip ped
a que
Popul ation
tor ped
en o
camp s
ip her
um an
locomot ive
ex em
in car
eng u
F at
ff ield
i ya
prec ip
Franç ois
fin ance
ster dam
H ob
Ann ual
uz z
hand le
Four th
T ree
S oph
ade qu
F olk
re b
S audi
Cir cle
ant is
Am sterdam
S le
recip ient
Hen ri
g ap
fl av
assoc iate
st ell
P om
Ar med
famil iar
tempor arily
Budd hism
revolution ary
N athan
le ctions
fun eral
Stud y
Ron ald
ig s
br anded
mil k
an ced
Commission er
185 2
B ag
Is ab
distin ctive
can on
stud ying
comed ian
pict ures
IS O
Bulgar ian
He ights
oper ators
Bur ials
( '
z an
t ight
ph osph
Sc he
umber land
cylin der
d ots
u to
popul ated
ch ess
inspir ation
conne cts
. ),
cut ting
not ice
H P
iel der
18 30
symb ols
comp act
dr a
Be h
Char ter
c c
Del hi
c attle
Com edy
l ia
protest s
tr uck
amb ass
atmos phere
Ad ventures
Well ington
ut ter
electric ity
g art
18 12
ual ity
ens or
arch y
Cab inet
surv iv
grand son
D I
dise ases
neutr al
var iations
with drew
Colum bus
Palest ine
Sh ir
ax is
b ench
Fran z
Sax on
L ex
Dur ham
M az
Add itional
u i
I b
consum ption
M ath
in ser
cop per
qu er
L ag
f lower
Pal mer
Mas ters
un credited
constru ct
At tor
el dest
O scar
P ick
br ands
th inking
c um
1 16
Well s
St ories
Sh a
Le eds
y m
O ct
os hi
D ir
ol ly
ne phe
in us
Y ang
Al ger
Ben ed
ul us
il ian
Le ft
per mission
s lavery
r ib
184 6
batter y
partic les
engine ers
rock et
Mil w
s ax
dr ink
Somer set
M ig
Dire ct
Bou levard
d iet
Loc ation
exact ly
iv ic
L au
e or
ok o
nob le
ach t
ab road
reg istr
C ert
de v
un ity
ran ges
is ons
r ent
inter face
Lank a
Ken ne
Co le
n inth
E f
Cr us
S ierra
ace ae
Ge off
Capit ol
Har per
Be ijing
Hol mes
attempt ing
guil ty
K un
ib ilities
iff s
st ere
Colomb ia
G host
B ach
: (
ext end
perspect ive
con clusion
dis band
f us
sec ution
hill s
opt ions
H az
j ack
mat ure
Conserv ation
consum er
farm ing
G w
Beg inning
C ome
cricke ter
gard ens
horiz ont
R aw
remot e
proced ure
nephe w
N uc
con vers
Des ert
18 20
Am bass
Great est
Luther an
Ro om
Ste in
ater n
Er nest
tele phone
re verse
hum id
up dated
Vo ice
in hib
ov o
M é
depart ments
Method ist
Milw aukee
P ie
3 50
il ation
L ac
ie v
p ir
V ik
stret ch
'' ===
res sing
wal king
ut ton
ro e
nam ent
P ath
Tr i
im possible
om ber
no x
Jo int
Bar cel
arr ison
l ib
cu isine
Goth ic
virt ual
Vill a
Prote ction
He aven
in tern
s ang
struct ural
Ed mund
C F
on i
t elling
Mo z
Ber g
184 7
read s
Play Station
qu een
E S
compar ison
dis solved
C yr
J a
inher ited
rhyth m
Fac ulty
ref lected
sp ell
ess ed
M end
organ isations
ices ter
A bor
ok u
S ter
d les
be am
dis aster
) ==
Is le
al ia
H aving
W atch
ab a
Th ames
Ferdin and
Ch a
bre eding
S z
integr ation
requ ested
f aster
b ars
cap s
185 3
C us
dem ocracy
Tre k
T ul
O z
Bro ther
R ush
T ong
to pol
it ary
Met al
L ess
sh r
Archite cture
T ube
N ur
parish es
broad casts
De von
de voted
10 2
War saw
round s
H ir
fl ash
Apol lo
pl as
un ar
bor o
wind ows
promot ing
B R
emphas is
on ed
d é
St re
ke es
Lord s
She ffield
N L
le ased
ł aw
Peters burg
Leban on
w o
ro cks
Te ch
Univers ities
di ocese
K um
Dr ama
wor st
amoun ts
mag ic
bar rel
Cost a
arch ive
M obile
g ov
plac ing
athlet es
isol ated
pick ed
ur as
pro portion
Dou ble
happ y
fe ud
M ort
bl ues
administer ed
interpre ted
tr ig
photograph s
N P
Epis ode
Oak land
Sw an
pl ates
Fa ith
re bellion
pronoun ced
k an
S ad
ar ena
Br y
operator name
D ame
improv ements
i our
Re ed
mathemat ical
Mot ors
D um
p ic
spe aker
10 4
an or
pay ment
Stan ford
Alph a
ov ić
bel t
squ adron
progress ive
K om
there after
al ien
bl ind
Second ary
O thers
H at
control s
bro ok
Commer ce
end ors
I g
G ot
S ource
hol iday
H C
Scot ia
osp itals
ic as
The ory
illustr ated
rat ings
S tra
N ak
Be au
god dess
hous ed
de emed
by ter
pre mi
RED IR
Ru th
F act
a the
Gu ild
j ar
over seas
Pet e
rem ix
burn ed
comp ounds
tour s
soc ieties
Em my
ug g
susp ension
del ayed
exh aust
man ip
depart ed
Shad ow
en compass
diplom atic
dog s
en thus
re called
T ales
cur ve
cor ruption
dis establishments
belief s
H ab
clud ing
Beng al
requ iring
Fem ale
mark ing
ext ensively
C um
fr aud
simultane ously
Mar io
ac les
leg s
mix ing
Bas il
en emies
cre am
p us
gu itars
Le icester
leg ally
Swe et
apart ment
B od
res ort
document ed
á s
S old
mix ture
P av
refer end
F ro
frame work
c in
ow ed
develop ments
plan es
st ake
jud g
be aring
fir ing
restr ictions
du o
man age
Mon day
l ung
18 37
Educ ational
L ib
High er
j ab
if fer
Gi ov
opp onents
govern ing
sm ooth
Ev ents
I L
S ans
com mentary
z ig
D im
S L
De ut
test ed
Che m
Merc ury
Gon z
ash a
cl ergy
pre v
prob ability
sub mitted
Be th
B ran
uk a
c ub
ro id
to ll
aff air
ic ulty
every one
neighbor ing
gall ery
indic ating
W R
Attor ney
comment ed
Bird s
p ap
ret reat
at ra
Relig ious
fort un
Barcel ona
democr atic
volt age
Tig ers
m oon
cr ater
in ated
S F
f u
l iver
d atabase
K ab
Per th
casual ties
att ending
ik er
liter ally
f ib
rif le
t ort
bomb ing
or th
resign ation
prepar ation
Tod d
7 50
sculpt ure
in formed
Sus sex
rol ling
archae ological
ul s
lin er
to l
Rom ans
Person nel
sc iences
author ized
Ev angel
re covery
F ig
effic iency
St al
m its
pos it
Ind ies
god s
Vietnam ese
mar sh
sq rt
attend ance
L enn
ic ia
Se an
ex ile
dram atic
V C
C ov
v et
G lobe
m un
ach er
en zy
Comple te
part ners
ane ous
egg s
fl our
few er
n ée
termin us
ol in
proto type
S elf
ra ising
L ak
h ier
x i
lab els
Constant in
difficult ies
Benn ett
ha us
Clar ke
ish i
slow ly
B ased
J our
bit r
S part
Writ ing
Bac helor
ack ed
F antasy
stop s
pione er
D T
Par ad
initi ative
N ancy
Cr u
T ake
NA TO
thr iller
ting ham
G erald
state ments
P od
or chestr
re z
Cub an
Lu ke
leader _title
16 0
ug s
i ast
Cr aw
' )
report ing
t icket
s word
Un iverse
M TV
ath y
18 45
iz ard
tor n
tal ent
arr ay
M R
D anny
k g
pres sing
maintain ing
sc atter
Arm strong
to ler
I TV
s av
wed ding
Ar ms
interview s
iv ia
e col
T ext
Re yn
con vert
diff iculty
gl ac
gener ate
h idden
b ore
Ch an
K ol
expl ain
b il
doct rine
ext inct
is an
st ored
Str ateg
approach es
a ic
ce eds
birth day
H O
te a
High land
prote ins
clin ical
marr y
enn ium
alpha bet
Man ager
M ik
_ mi
Cy cl
pack age
J in
pl ing
post ed
el igible
she et
def ended
challeng es
Bris bane
Ind ivid
gr en
p airs
Music ians
Agricult ure
n as
Vlad imir
bor row
Shan gh
Ar c
Val ent
then tic
film ing
qual ifying
In te
3 60
Re ading
Cam eron
Venezuel a
Her o
Kenne th
Jun ction
ok ie
l akes
er os
pl ural
man t
Me chan
Vir t
Saf ety
I sh
h es
pr est
Co x
techn ologies
elev ated
ans wer
Sp encer
Pro per
ne uro
Scient ific
el ong
priv ile
ph arm
ah l
gold en
hu a
targ ets
art et
) \
the olog
swit ched
Republican s
l ag
R av
ab str
Ed ge
compreh ensive
P on
gr an
special ized
Yugoslav ia
Cl aude
De b
10 3
hy brid
obl ig
re porter
del iber
Film ography
n ut
cent res
celebr ation
Johann es
ly s
back ed
res id
top ics
g if
dem ands
Work ers
confl icts
arm ies
agre ements
there by
F oster
wind s
ex it
Cr uz
mon astery
Never theless
en de
N um
ne ur
Bro oks
Pres byter
Mal ay
po ison
184 1
sc op
similar ly
rup ted
L ions
Dev il
Niger ia
P ink
im posed
pursu e
C ou
C N
Leg al
wrest ler
Se lected
cert ified
O wn
Nash ville
ie u
pos thum
ag ar
t ier
cl oud
psych ology
s ized
view ers
acc um
In tel
18 36
Iraq i
sup plied
d ock
be er
ba by
inaug ural
l ain
dies el
S cr
vict im
Var ious
pe er
sk a
ch ronic
Tas man
K ash
if ier
ag ram
leader _name
Ang els
imprison ed
dig it
J ess
Nep al
ne o
V ern
R id
sol utions
p ub
en os
con str
law suit
co inc
G ö
Por ts
C ant
Fin ally
j ury
fir es
Com par
rece ives
Art ist
m ere
Di ocese
Th ai
b read
cut s
T ra
Le op
Con n
18 32
B lock
Qu arter
O ber
f i
Li u
T all
mot to
Cze chos
in spe
wor e
E sp
mer ely
. ”
def ine
so ap
crash ed
Arab ia
ask ing
Czechos lov
Chancell or
Similar ly
vel oc
ic ular
habit at
el i
Shangh ai
18 44
be e
opt ical
in ternet
nam ely
? ''
ah an
18 38
á r
ent ers
T iger
T R
a es
le agues
ax y
ac a
Pow ell
vocal ist
14 0
pil ots
ck land
elevation _
p ow
arrang ements
Sask atche
cent ered
Pict ure
htt p
map_ caption
high ways
O m
Po etry
Saskatche wan
manus cript
cr imination
marg in
approach ed
Domin ican
B B
cl ay
S pect
geome try
est imate
pian ist
P M
od ed
Chall enge
E in
Polit icians
ag ger
worth y
end ers
og s
cop al
g em
E ight
found ers
push ed
Fin ance
ret ro
program mes
N as
reach es
B ark
co operation
Parliament ary
amm als
Dr ag
Ch en
n oun
He ath
sail ed
cre ator
te es
ow ing
separ ation
r aw
Tr ip
n utr
coll aps
object ive
H urricane
er up
for tress
W S
ab und
em igrants
= \
independ ently
J ur
F E
ol ith
G ael
seem ed
mus cle
inter action
cor ps
fer ry
Nuc lear
Gl ou
Ban ks
Stat istics
Comple x
ov ich
Tr ue
exhib it
follow ers
territ orial
Re cent
res umed
govern ed
R af
E SP
read ers
contin ent
post al
light ing
predomin antly
Id aho
fab ric
spec im
per mit
M om
pro pr
song writers
V it
Event ually
Ele ctions
Let ters
shor ter
al titude
column s
REDIR ECT
an es
lif etime
mod erate
Aar on
whe els
Car n
Indian apolis
un ions
mar ines
H ub
de pression
bre ed
Bra h
Glou cester
Lithuan ian
convin ced
Mor r
Represent ative
belong ing
H A
trav elled
psych ological
doll ars
H es
Corn wall
se vent
pre p
crop s
inter vention
del ay
dest ination
J en
P ine
H T
ap es
m emb
f ran
th yl
dis plays
is ch
18 39
ill s
bas in
Yan kees
Dr um
Honor ary
eng ers
R if
b ai
B ak
Bey ond
auto mat
u gh
Rh ode
Ne igh
H F
New port
Mar itime
Al t
Luc as
premi ere
am o
me ter
G az
hand ling
pres idency
Ow en
ir ical
Sud an
R aid
con quest
mathematic ian
lat est
b icy
park ing
st atic
Dy nam
ou x
Tour ism
Wild life
U sing
V ent
Cit iz
con son
Hol oc
to t
emot ional
sc andal
own s
Not tingham
var ieties
mor ph
E lection
belong ed
Bos nia
val uable
nob ility
cl ient
Commer cial
Blo om
Econom ics
Gen er
E c
k u
bur ial
or p
sign ature
18 35
af tern
arr iving
Liter ary
fil ter
Cl if
syn thesis
Abor igin
h az
l ore
Bre ak
ñ a
Palest inian
disput ed
Mar cus
bi ology
man ual
board ing
) &
integr al
earthqu ake
maintain s
x y
post er
carr ies
na issance
behav iour
gu ests
Lin ux
shar p
m all
s aved
li x
al ive
escap ed
f ont
med als
dis k
mathb b
R ice
# #
fle w
absol ute
Mil ton
box ing
ator ial
recip ients
G ir
Card inal
C ut
r in
Pruss ia
Lis a
we igh
our g
F an
qu is
vir us
referend um
beaut y
phenomen on
E ye
ca thedral
Jud a
S ed
ext ends
guitar ists
vari ables
b inding
Paul o
sur render
aim s
R oll
S D
S uc
reg ulation
Gen esis
sit uations
uck er
Che v
scor es
sq _mi
H ale
nam ing
carr iers
tox ic
config uration
be ating
sum mit
fr ied
Au ckland
Dav ies
184 2
Lou ise
10 7
ar is
re mark
Can ter
c ave
_ sq_mi
contr acts
K ate
ock et
agg reg
s ulf
ad ier
g ary
sit com
is a
K as
Grand e
b ene
Salv ador
pot entially
Advan ced
Road s
ang ered
rel ating
t issue
C amb
18 15
pres erve
Mar ath
H aven
A ur
A zer
H omer
month ly
in der
vis its
el abor
gener a
manag ing
bon us
Labor atory
ship ping
p as
sculpt or
assem bled
perman ently
neighbour ing
up s
under went
President ial
work er
ia o
v ine
ag ers
Wind sor
no se
her oes
li er
P iano
C ele
Amer icas
fr act
foc uses
Col in
shif ted
t ip
st ability
belie ves
Sh in
attack ing
s isters
out door
Jul ius
J et
clos est
10 6
m ol
g io
wa iting
comp rom
Ad venture
Dar win
down load
red es
trie ved
act ively
Pr act
ur ated
ot ing
install ation
Wor cester
With out
Anim al
re ver
K i
ist le
S ons
Sur rey
can cel
cul min
com ments
WW E
L if
f urt
out standing
Bel arus
is ers
law yers
fer t
P yr
rot ation
legit imate
oc y
u its
cont ested
compat ible
W inners
Filip ino
f ielder
dub bed
G ent
E ty
bor g
partic le
Gu itar
accommod ate
K iss
B uch
Fellow s
U g
en abled
fre ight
kill s
ist on
port ed
Is su
sec ular
ul ating
sp end
lay out
} )
Q ing
theat rical
ut ed
min eral
ran o
post s
cho ir
address ed
Wh y
Pun jab
os es
War wick
prevent ed
war ning
C ed
harmon ic
ment ions
Lithuan ia
pri ests
amb ers
ac company
ther mal
alter ed
immigr ation
syn thes
dr inking
H MS
g ift
el op
Man ufact
Giov anni
ic i
challeng ed
vul ner
international ly
Br onze
c ant
All an
reve als
Beat les
Again st
de funct
C oc
F ighter
physic ist
ad ers
ext ending
Stock holm
184 3
ag i
oper ative
Tr in
cl am
H ip
id i
tr i
Inter view
Sol omon
repeated ly
Mer it
Lux emb
b oss
ig ate
yn es
conf idence
tr ick
ai ro
or ange
Pan ama
yn om
sum _
scholar ship
eng age
Ex per
Mig uel
Lud wig
sam ples
ific ate
orient ation
collect ive
diplom at
es a
swe et
P ly
foot age
mole cular
New found
Pl ate
Indones ian
coach ing
pun ishment
ambass ador
Test ament
top ic
im press
Wood s
fif teen
require ment
transmit ter
ien ne
lo oks
Elect ronic
Kr ist
Z o
Church ill
Por ter
l ambda
play wright
sit ting
A I
quir y
Dis covery
Super man
Fif th
necess arily
comm une
conf used
L az
var ies
Cir cuit
M ing
the ology
minim al
rit ual
X I
Cypr us
Cal gary
kid n
Gib son
k el
ar bitr
Art icles
eas ier
vary ing
arg ue
H od
trav els
diale cts
htt ps
S ie
Canter bury
depend s
r ust
Phys ics
Gl ass
photo grapher
Enter prise
trans formation
Newfound land
ley ball
Ch al
C red
ry s
ball s
C lear
on na
O pt
ast ro
constitu encies
Eag les
G O
Med ieval
ent repr
off s
oc he
et ics
v ous
re actions
ut ility
l ux
Inte gr
qu it
Sl oven
Pres idents
j ew
tr im
horizont al
U se
alleged ly
bankrupt cy
Per iod
trans form
int ense
entrepr ene
A gre
Ama zon
reli able
chan ts
You Tube
om orph
feel ing
t ale
o que
Geor gian
w reck
cl ip
Ed mon
favor ite
C ann
loy al
ense m
i ages
fair ly
ans w
Inter ior
estr ian
Termin al
R um
el ite
C inema
u y
dr afted
sil ent
G and
last ing
sen ators
ic z
18 34
ne ys
jud icial
Gr en
Juda ism
c art
gr y
cross es
hypo thesis
R ah
o ct
King ston
inter cept
g ie
dem anded
hon ors
eng agement
He at
S anti
Dun can
ill es
Andrew s
l ip
Mon ument
compr ises
Pr ague
C av
acc us
res ource
Spring field
M old
ass y
Sim pson
nick named
um ps
stitut ional
La ura
rul ers
V il
Me et
Jama ica
au thentic
F O
cot ton
R as
rev ived
distingu ish
zh ou
s ending
gy mn
L ap
Doc ument
on wards
collabor ated
awar eness
p ull
fail ing
10 9
d io
Pruss ian
11 1
rap per
pro sper
Cr imin
Eu gene
Card inals
ph ones
Er n
expl ains
ed o
dynam ic
vel oper
Ill ustr
ident ification
sh aw
L iv
Caes ar
Lan caster
magn itude
uss els
Hawai ian
Bald win
Ch ess
J ak
ch est
circul ation
excell ent
Or land
ail ing
pat ch
prom ised
assass ination
f ame
cor on
fl ank
El lis
dial ogue
divor ce
des ert
sh ots
proper ly
att a
f inger
o z
decor ated
iz ers
A w
il iary
ash ire
C any
Sc ots
em igr
hol es
Mur der
S earch
celebr ate
complet ing
attract ion
M Hz
th ro
circ ular
f ing
trans formed
Lanc ashire
gener ations
18 31
acqu ire
col ours
Crit ics
Azer bai
social ist
Start ing
rece iver
T ampa
compil ed
Bened ict
Ar isto
ingu ished
decl ar
c emetery
comm enced
p ump
pl anted
Ken ya
d iversity
st en
proced ures
al umin
u um
Pal m
alleg ations
gr ain
en su
ene tr
in os
par ad
Ed gar
Philos oph
ob vious
L é
am ine
Act iv
Ste fan
w ish
str ings
Gl enn
S cor
ium ph
Sh ips
decre ase
rel ie
c ann
For um
ae us
Over all
Aborigin al
ab lo
p enn
math cal
photo s
Tr iple
c offee
tem ples
tal ks
mot ive
R CA
sac red
T I
exam ination
P D
as ks
ens en
Pl aza
r ist
R out
T ow
Se bast
stat istical
activ ated
He y
ter rain
201 0s
gam ma
pul led
C anton
inc umbent
phil anthrop
Lu ck
c ats
con tribute
miss iles
burn ing
Andr é
18 14
gu ards
pro vision
theor etical
R ural
rest ore
Ch ase
H ack
J ung
E ve
invol ve
b ian
h t
produ ctive
Flor a
perform ers
expand ing
in as
var ied
was h
sens itive
line up
K urt
Wes ley
Fl ash
F est
in fo
C un
V eter
oc ent
Winn ipe
equ ations
compr ising
all ied
under graduate
des ired
concentr ated
pr ises
, \
veter an
Winnipe g
batt alion
Ob ama
art work
Stal in
ill ing
Sports people
Bir th
ol ate
fall en
compos itions
sup plement
S ene
F ur
observ ation
k it
pol ynom
Por trait
D ud
min istry
us a
Theod ore
foc using
Under ground
M ine
sever ely
ig ent
Ety mology
ced ed
ten th
infe ction
Bed ford
Est ablish
S it
U R
Bl ake
ö n
registr ation
pow der
Sh ore
dim ensions
gradu ating
tas ks
at in
f usion
Inc umbent
in deed
Mos es
Pres ent
Tour nament
Ad vis
Re cording
Distr ib
A FL
bre ast
s aint
pred ict
ant icip
adequ ate
G em
acknowled ged
r ik
carr iage
in ces
In dex
travel ing
cycl es
h ull
ov an
screen writer
improv ement
vow el
Presbyter ian
gen res
Cong o
b apt
Ch ad
Railway s
German ic
10 8
Gen eration
sport ing
re ject
O g
advoc ate
im er
gather ed
fir ms
instru ctions
S M
rid or
sh i
f atal
tr on
un ve
nom ine
P engu
Bar n
Ex pedition
Cry stal
if fe
philosoph ers
bound ed
th rown
eng ths
Observ atory
sust ained
ar ians
adop tion
veloc ity
sp here
app a
cre ates
gu id
T us
Cont in
c oc
ox id
c inem
M iles
T able
Constantin ople
Ar sen
M ā
invent or
spect rum
H ood
W B
P aper
B ever
ctor ate
Alexand ria
M oney
cycl ing
mess ages
B alk
ator ies
Edmon ton
Com bat
ment ed
clud es
beat en
seg ments
L ay
v ig
than ks
Her oes
. :
s igma
consid ering
tow ers
atom ic
s oph
remember ed
Pakistan i
Malt a
particip ating
Moroc co
divor ced
Hal f
it ious
am en
Pr adesh
G ol
L L
C ul
ach ing
ro gen
ang ular
con front
Bo hem
div ine
flu ence
regard less
b und
dis crimination
re fr
wick ets
suggest ing
air ie
s op
at ar
sing ular
dep icting
P ale
N u
dec ide
Assist ant
ic als
ing en
tim ber
Ply mouth
T D
provis ions
Ros en
Richard son
labor atory
qual ify
han ced
ro v
person ally
critic ised
coun cill
Ber k
Z hang
We ather
dro ve
am ic
an che
18 33
Br yan
B ody
sp ur
h ospitals
Mon th
sen ator
V at
ul i
Cany on
op es
Tr avel
Wag ner
encounter ed
c s
Holoc aust
c en
M ang
r ings
B il
od ia
dou bles
Aud io
event ual
A e
Car roll
Ch uck
F ant
Art illery
le e
ren owned
gu ided
sm ith
Em il
str ikes
spe ctive
civil ians
h agen
sh er
Ce cil
ach es
put ting
ances try
ed itors
gr ay
Vis count
Ar ctic
ste ep
Rh ine
Orland o
disband ed
R ican
rain fall
condu cting
at ro
V ision
real ized
Twent y
aud iences
absor bed
^{ -
M ater
Bur ton
fl ies
ev e
15 00
gh ost
adop t
Con cert
fast est
b assist
ath lete
v ibr
bl er
govern ors
pay ing
ch ord
l ens
man uel
Provin cial
ro bot
Ach ie
Les lie
av ier
tel es
tourn aments
dete ct
s ick
ap prec
w ants
Lar ge
c ure
pro secut
Cr isis
Har bour
E M
not ation
M emp
My th
est y
hom osex
lan es
Mid dles
contribut ing
Re lease
12 8
Bel le
Colon ial
Santi ago
ct uary
W ake
Gen eva
agon al
od d
iss a
Or d
recru ited
near est
Le y
prep are
Memp his
cre ational
sur faces
Min isters
viron ments
d uration
employ ee
A j
prison er
helicop ter
p ale
tribut ary
Marsh al
k et
aut umn
fin ity
E A
Sc and
col m
Liber ation
comput ing
v ital
dr ed
Ham burg
Nor ton
bot an
Bas in
but ter
ig ar
& =
mechan ics
u f
aftern oon
dan cer
be k
ins cription
id ays
torped o
volunte ers
E t
des er
par ame
new sc
dis orders
prot agonist
present ation
ac cent
refuge es
D id
M aid
suburb s
P ent
N ixon
Engine ers
shel ter
not ion
pro claimed
corpor ation
be ck
In str
tr iple
se ized
ed e
occas ional
l ibraries
Col ony
philosoph ical
In v
E state
it us
citizen ship
arr ive
or b
Lu cy
T P
recogn ize
T roy
Mo ham
ESP N
d ivers
At t
bu ck
Fr aser
organ isms
Jul ia
Man ila
athlet ic
inter mediate
Wy oming
L on
D M
ub a
strong er
S ara
precip itation
cript ions
break s
d iamond
hop ed
Chel sea
om o
Altern ative
C ros
pr ayer
Cle ment
oppos ing
Br ussels
L odge
S ent
Gr iff
propos als
Mal colm
**** ****
bl og
bul k
hur st
friend ship
Day ton
Reyn olds
to k
od ium
j ug
con sequence
lay ers
vict ories
del ta
pass ion
inter im
sol ve
T alk
con junction
ch in
pre val
serious ly
be ars
uk u
Com b
ud a
hib ition
wid ow
dim ension
Cele br
Z ion
Sur v
de veloper
- ''
p yr
ep ic
g aining
il o
de vast
ul sion
bo ot
analy st
mole cules
Agre ement
reser voir
de an
execut ives
im o
18 25
sur prise
b ones
S aw
R NA
Curt is
z ones
om ar
A my
d d
en ic
cons ort
ver te
Duch y
arg uments
commit ment
Ch ange
p ond
Re agan
Ly on
ä r
Luxemb ourg
qu oted
w elfare
ag r
m ount
W im
Ve h
shor ten
tr end
Par amount
August us
Hon our
ac ing
abbre vi
N atal
th rew
M au
at tribut
Rel ations
assess ment
dr ain
pher ic
B elf
ox ide
anth ropol
Lind a
inf ty
St afford
L omb
virt ually
C ord
L earning
Sh ield
cru cial
F BI
Roberts on
doub t
gener als
la us
ind irect
sub stance
Hu go
c hel
assoc iations
Trad itional
compr ised
met ic
it ely
psych iat
K ids
deep ly
up graded
Mar ion
is cher
W it
termin ology
Morr ison
Hop kins
ham let
art if
Legisl ature
sp elling
G ospel
Co ol
sw ing
cam eras
for ty
''''' ,
m ild
l é
manus cripts
ent ities
H erald
m ish
13 5
surv ival
deal ing
n avy
quarter ed
re ward
pen insula
sports people
ou tr
W ick
Mes a
ch ip
estim ates
cl ips
announ cement
ber to
f s
Gram mar
ett es
C ly
Pr eston
sole ly
Tenn is
different ial
A G
ins ky
i u
M k
ed ges
Ch arts
N Z
p ipe
amm un
Str ong
conqu ered
Mong ol
) '',
flag ship
Heavy weight
g ates
Fer gus
does n
p ace
Ad olf
se eds
Hend erson
oc curring
Sher man
P and
observ ations
vol unt
il ogy
Bav aria
18 21
Just in
T F
batt ing
Zim bab
p ig
t ables
tr ap
rele asing
) ^
p enetr
space craft
Zimbab we
t ong
Happ y
T ir
ev elop
y stem
C ore
k rit
John s
Introdu ction
val ve
H ul
ov al
Brad ley
Tun is
er g
Be ing
D ew
nat urally
F ay
V oy
en vironments
Ur ugu
cr ush
under lying
reser ves
sac r
Concer to
we aken
Burn s
bul let
D D
Nov el
K re
log y
Rock y
Confed er
renew ed
grav ity
custo mer
educ ator
to ire
in fer
Trin idad
ammun ition
c z
tour ists
W ik
E y
gram mar
SC AR
fif ty
descrip t
suff ix
Mon roe
Alb any
Ul ster
en able
B order
bio graphical
present er
def ending
sum mary
f ro
Fern ando
ust ers
ash es
d imin
ü l
p ier
t ick
w hel
cur s
las er
Abd ul
. ).
st abil
reb els
Balt ic
car b
alt ies
L ines
Ed win
li ked
ä n
C IA
explan ation
legend ary
host ing
W end
Ber ry
Li by
w age
form ats
Pre vious
discipl ine
E volution
M ail
unc iation
os ing
automat ically
An to
Cl oud
e ating
Adr ian
as ide
run way
G an
J or
Church es
can e
set te
ed iting
cap abilities
jo ins
vin yl
n als
d anger
process or
g arrison
qu iet
off set
de en
R he
i ative
olith ic
correct ly
Imp act
sl ide
Min ne
en rolled
far ms
kin son
Chron icle
dol lar
auto biography
mut ual
C over
P att
St or
sub marines
s om
measure ment
H ull
exp elled
ild a
acc eler
qu et
conspir acy
gen es
z ed
advert is
Ter ror
conscious ness
i form
G aul
G ott
od ing
explos ion
P all
ar in
18 28
W inst
Or igins
op hon
dist ant
ill on
Wor d
Greg or
Br ien
trib al
colle agues
sus pected
ind oor
Res ources
ult imate
Geor ges
d ancing
S pl
c ro
oy le
num er
destroy er
conf usion
F ast
p ard
4 50
un s
cus toms
itch en
re construction
est ates
E aster
und y
mass acre
prompt ed
el ia
it ative
ne um
Ro chester
T ell
he x
Wor th
o ter
aut onomous
Slav ic
rel atives
list en
val ued
t ut
Em press
Epis copal
Frank furt
brig ade
''' ;
Ambass ador
R ut
as ters
Sing er
al is
Z en
str iking
inter actions
18 24
cons ent
V iv
Toy ota
ar isto
log ical
op ens
Budd ha
Achie vement
bo ost
Belf ast
Re id
ah u
Down town
P é
surviv ors
e b
man s
Baby lon
achie v
18 10
chap ters
el ing
explicit ly
Fact ory
st aged
sub urban
Tour ist
emb ed
F ear
monarch y
Stat istical
res cu
abol ition
bo om
Individ ual
Com mod
load ed
An a
spok es
Chem ical
M M
Sh i
Mult i
S team
polit ically
prov en
17 90
Fin als
S top
Air ways
ord ination
inher it
ap pl
em a
Armen ia
st ed
ad al
transl ations
Ty p
le an
Let ter
Ele ctoral
restr ial
Bur ke
preser vation
R ib
H i
ov sky
D ere
S ister
t ang
18 26
st amp
re volt
Em ma
fe es
decre ased
imprison ment
M ade
collaps ed
ash ed
E cu
dis appeared
ph in
Phys ical
Ca o
qual ification
ten e
tr io
S iege
sup porter
aer ial
de fect
thor ough
lo o
te ch
trad em
cir cles
L ic
202 6
Coal ition
2 20
aw s
r he
introdu ce
fl own
H ass
congress ional
B ears
cur ric
L ip
t an
Prof ile
Vict ory
Craw ford
Ne o
; &
C ave
su f
neighbour hood
S H
ch y
US SR
G C
g ly
re cover
ew ise
Ba iley
crit eria
om es
run ners
Res ults
re curring
B end
Mc Donald
Langu ages
Anal ysis
Con nor
tee th
der ives
In side
inn ed
res ur
Curr ently
not ing
hon ours
consider ably
C open
Su z
nav igation
after math
l ion
18 29
dec is
pra ise
aristo cr
Bl air
ex terior
Car lo
Co hen
sub s
Fer ry
em ann
Hein rich
bacter ia
in land
Sic ily
Pro cess
Sy rian
D uck
Det e
ome ga
Cal vin
Ah mad
Jenn ifer
bl o
my stery
iser ies
accur acy
Municipal ities
equ ally
ru ins
with drawn
ab sent
cl ade
har a
sto len
su bor
N g
or um
sus pect
Th orn
manufact ure
less er
my ster
transport ed
he ter
nation wide
sou theastern
at ivity
encour age
feel ings
Sug ar
autom obile
mir ror
Pl ain
or ts
ac ular
priv ately
de er
target ed
electron ics
pursu ed
Ed itor
Com ic
arr ives
Har mon
super vis
sail ing
advoc ated
incl usion
Dou g
ok es
foss il
har bour
r ivals
t ical
nor theastern
C lin
More over
L ig
national ist
he ars
arg uing
ID S
emer ging
Publ ishers
kind s
ar n
pr ints
withdraw al
Dist inguished
rel uct
18 3
w y
rif ice
c ements
att itude
Vers ion
mod ule
Scand in
is i
as ia
C ock
in ks
ab ul
athlet ics
should er
P owers
Kaz akh
color ed
err ors
Over view
M ake
prom ise
iment al
Emer gency
ar ose
But ter
e ag
find ings
Carol ine
stad t
J P
vo ices
Dor othy
Mar in
rap h
un anim
coun ters
ut a
t ent
she ep
18 18
Me g
mission ary
hab ilit
railway s
L oy
Rich ards
con sequences
ass is
d ens
et ta
dr ives
pre y
if fin
K hal
expl oration
Tun nel
small est
commercial ly
Man or
Nap les
Spec ies
cons ensus
separ ately
ess es
Atl as
Sans krit
Copen hagen
resol ved
coun sel
prohib ited
Sal em
dire ctions
.. ..
Y uan
l ac
Tr uth
H off
is che
Pir ates
depos its
un clear
T een
quarter back
Ethiop ia
Ecu ador
market ed
human ity
Crimin al
John ston
pres idents
Ph an
r ally
L af
p pen
am al
Ph D
ett i
Her man
s unk
Ports mouth
copy right
l ang
Gu ang
author ed
cru iser
th on
Spe aker
Ern st
en roll
ate mal
N I
f ate
H im
ile e
ath am
int ensity
interest ing
yl an
180 1
ch or
mill s
S ap
ninet eenth
Ul t
w yn
me tric
tact ics
h art
s ke
ing red
Dem ocracy
u ate
f ers
D as
tr idge
memb rane
compens ation
n ar
monarch s
ma x
re moving
** ***
K nox
over whel
Leop old
Hay es
H ear
New man
Gu atemal
w ake
in stitute
qu in
Gr adu
se ment
align ment
lob by
Charac ters
review ed
conv oy
El len
Po ems
ob sc
io let
f iber
sett ings
bond s
G row
Lyn n
Ef fect
Rab bi
il er
mechan isms
geograph ical
Con stitutional
Col l
D ion
Cor nell
consist ently
guid ance
A ce
L um
cr ack
Sat urn
R iv
Mar ian
it udes
Ne ill
f ant
l unar
Warr iors
broad caster
se ct
improv ing
trou ble
achie vement
Ro th
G DP
bene ath
Rank ing
complex ity
con trad
NES CO
anc ers
spe eds
de als
G iven
au ction
17 5
rival ry
M G
pr ay
box es
Elli ott
head ing
Su ff
sub stitute
cles iast
S trait
N un
Rod rig
Gh ana
S W
archite cts
C ell
My stery
Ult imate
C rom
H its
o ons
Tr ou
Gael ic
Bright on
ell ers
Offic ers
pr ent
* #
mon uments
G ul
ab ortion
conce ived
Mid lands
commer ce
s ar
read er
bank ing
it em
Jo el
FC C
sh a
Lev el
c ere
North ampton
gather ing
Buck ingham
ev ident
editor ial
Lo ok
L il
ar ith
calcul ated
U NESCO
G es
threat s
Wor king
an them
ij a
gu ar
B rom
L av
M ick
i ating
And ers
enter tain
I mag
As sy
Mathemat ics
defin es
Andre a
ol ine
R é
Dis c
amp ire
happ en
ers ed
abstr act
Sh im
24 0
Air es
milit ia
p pe
Em ir
In stitut
N D
18 13
air ing
ep ing
C ork
dec ides
met ap
Z ero
tr ump
F low
ass ists
b omber
Vol unte
r us
gr ants
compet itors
clam ation
sm oke
Bu enos
unve iled
x x
reser ved
proxim ity
j in
Ch am
x ide
v ie
poor ly
Pl ains
north western
Support ing
Br ent
flood ing
ad vent
NA SCAR
ater al
% ).
verte br
s au
graph s
B ug
De pression
broad er
L ed
Ant io
S und
kn ight
O blast
Reg ular
Brad ford
C T
h urricane
p ending
18 16
emb le
Administr ative
Pr int
re creation
ate ver
v acc
image_ caption
Minne apolis
17 0
transl ator
V all
land mark
station ed
if ax
ag gressive
entreprene ur
C I
M s
d ying
susp ic
avail ability
invest ors
d ad
dor f
V a
P ione
trav elling
ab ling
Th r
Haw k
im an
Ch amp
Wo ol
d ishes
Thom son
In stitution
arr a
favor able
qu ot
D awn
thir teen
N ed
mon ks
D iana
Not re
ib a
F é
Constant ine
W ings
South west
B L
h oney
add y
par ade
d un
z u
and ro
ull ah
Histor ically
qu ote
c ule
ra ids
achiev ements
ath a
) }
Mad onna
Wil der
H our
ia z
mur ders
twent ieth
dis miss
destroy ers
investig ate
H ast
W aters
New sp
ant ib
Geoff rey
Form ation
ph ant
Pat ric
Str at
ard i
Card iff
Bet ty
Car s
Vis ual
S core
expl ored
Ah med
E mb
debut s
l ich
preced ing
gu y
Pot ter
_ of
d ys
18 19
L ives
cru ise
h ide
Li bert
pil gr
D art
en hanced
az i
my st
special ist
cis es
Treas ury
Jer emy
Head quarters
en larg
Mo or
su its
inv aded
Wed nes
serv ant
publ ish
mar itime
hum or
F alk
Ham pton
S U
Kenn y
f is
c af
Winst on
ver bs
Hard y
ar u
at su
ig i
import ed
á il
th ouse
red evelop
got ten
bur st
Bas ic
ap a
Bl u
'' &
H ave
hit ting
ind a
Log an
P apers
out come
Gr aph
Br as
disput es
trail s
Sac ram
advant ages
per former
chem ist
Aber deen
loc ks
Town ships
bomb s
dis pers
Cl er
C BC
M oss
Mot ion
institut ional
Hal ifax
us ive
Confed eration
develop ers
fill ing
Charl eston
M IT
ip el
r ie
story line
et ary
L amb
accompl ished
S isters
hy s
sk etch
Ib n
E D
Nor se
accord ance
catal y
i ens
Fed er
18 27
government al
condem ned
h ire
Will ie
national ly
terror ist
haw k
med ic
We i
Sol ar
Y ard
tre as
Com put
later al
head quartered
Y ak
ac et
en y
volunte er
ib al
Ros a
oy d
pan els
fe eding
oc olate
add le
re creational
he ed
Jes se
id an
Max well
C avalry
EP s
Th ings
16 00
S au
south western
screen play
me ga
indu ced
Alban ia
ab el
des k
cu its
Bro ck
18 22
wrest lers
Archae ological
H ier
d ome
s izes
Bar nes
Loc ated
180 6
D ynasty
e i
Str u
phys ically
Charac ter
n ings
Jour ney
